{
  "\n": 0,
  " ": 1,
  "!": 2,
  "\"": 3,
  "#": 4,
  "$": 5,
  "%": 6,
  "&": 7,
  "'": 8,
  "(": 9,
  ")": 10,
  "*": 11,
  "+": 12,
  ",": 13,
  "-": 14,
  ".": 15,
  "/": 16,
  "0": 17,
  "1": 18,
  "2": 19,
  "3": 20,
  "4": 21,
  "5": 22,
  "6": 23,
  "7": 24,
  "8": 25,
  "9": 26,
  ":": 27,
  ";": 28,
  "<": 29,
  "=": 30,
  ">": 31,
  "?": 32,
  "@": 33,
  "A": 34,
  "B": 35,
  "C": 36,
  "D": 37,
  "E": 38,
  "F": 39,
  "G": 40,
  "H": 41,
  "I": 42,
  "J": 43,
  "L": 44,
  "M": 45,
  "N": 46,
  "O": 47,
  "P": 48,
  "Q": 49,
  "R": 50,
  "S": 51,
  "T": 52,
  "U": 53,
  "V": 54,
  "W": 55,
  "X": 56,
  "Y": 57,
  "Z": 58,
  "[": 59,
  "\\": 60,
  "]": 61,
  "^": 62,
  "_": 63,
  "`": 64,
  "a": 65,
  "b": 66,
  "c": 67,
  "d": 68,
  "e": 69,
  "f": 70,
  "g": 71,
  "h": 72,
  "i": 73,
  "j": 74,
  "k": 75,
  "l": 76,
  "m": 77,
  "n": 78,
  "o": 79,
  "p": 80,
  "q": 81,
  "r": 82,
  "s": 83,
  "t": 84,
  "u": 85,
  "v": 86,
  "w": 87,
  "x": 88,
  "y": 89,
  "z": 90,
  "{": 91,
  "|": 92,
  "}": 93,
  "~": 94,
  "¢": 95,
  "¦": 96,
  "©": 97,
  "Â": 98,
  "Ã": 99,
  "â": 100,
  "œ": 101,
  "ँ": 102,
  "ं": 103,
  "ः": 104,
  "अ": 105,
  "आ": 106,
  "इ": 107,
  "ई": 108,
  "उ": 109,
  "ऊ": 110,
  "ऋ": 111,
  "ऌ": 112,
  "ऍ": 113,
  "ऎ": 114,
  "ए": 115,
  "ऐ": 116,
  "ऑ": 117,
  "ऒ": 118,
  "ओ": 119,
  "औ": 120,
  "क": 121,
  "ख": 122,
  "ग": 123,
  "घ": 124,
  "ङ": 125,
  "च": 126,
  "छ": 127,
  "ज": 128,
  "झ": 129,
  "ञ": 130,
  "ट": 131,
  "ठ": 132,
  "ड": 133,
  "ढ": 134,
  "ण": 135,
  "त": 136,
  "थ": 137,
  "द": 138,
  "ध": 139,
  "न": 140,
  "ऩ": 141,
  "प": 142,
  "फ": 143,
  "ब": 144,
  "भ": 145,
  "म": 146,
  "य": 147,
  "र": 148,
  "ऱ": 149,
  "ल": 150,
  "ळ": 151,
  "ऴ": 152,
  "व": 153,
  "श": 154,
  "ष": 155,
  "स": 156,
  "ह": 157,
  "़": 158,
  "ऽ": 159,
  "ा": 160,
  "ि": 161,
  "ी": 162,
  "ु": 163,
  "ू": 164,
  "ृ": 165,
  "ॄ": 166,
  "ॅ": 167,
  "ॆ": 168,
  "े": 169,
  "ै": 170,
  "ॉ": 171,
  "ॊ": 172,
  "ो": 173,
  "ौ": 174,
  "्": 175,
  "ॎ": 176,
  "ॐ": 177,
  "॑": 178,
  "॒": 179,
  "॓": 180,
  "॔": 181,
  "क़": 182,
  "ख़": 183,
  "ग़": 184,
  "ज़": 185,
  "ड़": 186,
  "ढ़": 187,
  "फ़": 188,
  "य़": 189,
  "ॠ": 190,
  "ॢ": 191,
  "।": 192,
  "॥": 193,
  "०": 194,
  "१": 195,
  "२": 196,
  "३": 197,
  "४": 198,
  "५": 199,
  "६": 200,
  "७": 201,
  "८": 202,
  "९": 203,
  "॰": 204,
  "ॱ": 205,
  "ॽ": 206,
  "​": 207,
  "‚": 208,
  "“": 209,
  "”": 210,
  "„": 211,
  "€": 212,
  "™": 213,
  " क": 214,
  " स": 215,
  " ह": 216,
  " म": 217,
  " प": 218,
  " है": 219,
  "ें": 220,
  "ने": 221,
  " के": 222,
  "ार": 223,
  " ब": 224,
  "्र": 225,
  " ज": 226,
  "या": 227,
  " व": 228,
  " ल": 229,
  " द": 230,
  " अ": 231,
  " में": 232,
  " र": 233,
  "ों": 234,
  " न": 235,
  " की": 236,
  "ता": 237,
  " आ": 238,
  " को": 239,
  "र्": 240,
  " उ": 241,
  " कर": 242,
  " औ": 243,
  " से": 244,
  " और": 245,
  "ना": 246,
  " कि": 247,
  " ग": 248,
  " इ": 249,
  " त": 250,
  " का": 251,
  "्य": 252,
  " ए": 253,
  " भ": 254,
  "ान": 255,
  "िक": 256,
  " च": 257,
  " पर": 258,
  "स्": 259,
  " प्र": 260,
  "िल": 261,
  " हैं": 262,
  "क्": 263,
  " थ": 264,
  " श": 265,
  " ने": 266,
  "ाल": 267,
  "िए": 268,
  "ही": 269,
  " हो": 270,
  "ते": 271,
  " इस": 272,
  " य": 273,
  " एक": 274,
  "हा": 275,
  "ित": 276,
  " ख": 277,
  " फ": 278,
  " जा": 279,
  " सा": 280,
  "ड़": 281,
  "न्": 282,
  "िया": 283,
  " लिए": 284,
  "के": 285,
  " स्": 286,
  "ती": 287,
  "िय": 288,
  "वा": 289,
  "ंग": 290,
  " भी": 291,
  "से": 292,
  "िन": 293,
  " अप": 294,
  " दे": 295,
  "ला": 296,
  " वि": 297,
  "हीं": 298,
  "रा": 299,
  "री": 300,
  "ले": 301,
  " बा": 302,
  "नी": 303,
  "त्र": 304,
  " नहीं": 305,
  " ट": 306,
  "ति": 307,
  " था": 308,
  "गा": 309,
  " सम": 310,
  "्या": 311,
  " आप": 312,
  " रा": 313,
  "त्": 314,
  " ले": 315,
  " ड": 316,
  "का": 317,
  " सं": 318,
  "ेश": 319,
  "सी": 320,
  "ोग": 321,
  "कर": 322,
  " साथ": 323,
  "क्ष": 324,
  " यह": 325,
  "ाम": 326,
  " किया": 327,
  "की": 328,
  "्ट": 329,
  "ंद": 330,
  "ारी": 331,
  " ही": 332,
  " उस": 333,
  "ली": 334,
  "ुर": 335,
  " रह": 336,
  " हु": 337,
  "न्ह": 338,
  "्म": 339,
  " मु": 340,
  " सक": 341,
  " करने": 342,
  "ाह": 343,
  " नि": 344,
  " १": 345,
  "्व": 346,
  " वह": 347,
  " कहा": 348,
  " कार": 349,
  "िस": 350,
  " तो": 351,
  "मा": 352,
  " गया": 353,
  "हु": 354,
  " २": 355,
  " उन्ह": 356,
  " कु": 357,
  "ास": 358,
  "ाय": 359,
  "ंड": 360,
  "रे": 361,
  " अपने": 362,
  " जो": 363,
  " थी": 364,
  "कार": 365,
  "ल्": 366,
  "ियों": 367,
  " मा": 368,
  "च्": 369,
  " छ": 370,
  " हम": 371,
  " उन": 372,
  " अन": 373,
  " सु": 374,
  "भी": 375,
  "भा": 376,
  " या": 377,
  " अध": 378,
  "्री": 379,
  " पू": 380,
  "खा": 381,
  " घ": 382,
  "स्ट": 383,
  "सा": 384,
  "िव": 385,
  "ंच": 386,
  "गी": 387,
  "िला": 388,
  "ोन": 389,
  "ोज": 390,
  " वाल": 391,
  " वे": 392,
  "\n\n": 393,
  " सि": 394,
  " बार": 395,
  " दिया": 396,
  "ेल": 397,
  " पह": 398,
  "टी": 399,
  " तक": 400,
  " ध": 401,
  "ारा": 402,
  "कि": 403,
  " रहे": 404,
  "दी": 405,
  "किन": 406,
  "जी": 407,
  " चाह": 408,
  "ओं": 409,
  "ोंने": 410,
  " बाद": 411,
  "्रे": 412,
  "प्": 413,
  "िर": 414,
  "तर": 415,
  " बहु": 416,
  "दा": 417,
  "को": 418,
  "गे": 419,
  " मै": 420,
  "ाइ": 421,
  "मी": 422,
  " उप": 423,
  " लेकिन": 424,
  " मह": 425,
  " बना": 426,
  "ार्": 427,
  " सी": 428,
  "ंत्र": 429,
  " बहुत": 430,
  "स्त": 431,
  " (": 432,
  "ां": 433,
  " दिन": 434,
  " पा": 435,
  "िश": 436,
  " रहा": 437,
  "ूप": 438,
  "देश": 439,
  " थे": 440,
  " राज": 441,
  "्ष": 442,
  "००": 443,
  " मिल": 444,
  " लोग": 445,
  "में": 446,
  " उन्होंने": 447,
  "ानी": 448,
  " कुछ": 449,
  "िंग": 450,
  "वी": 451,
  " हुए": 452,
  "टर": 453,
  " जी": 454,
  "था": 455,
  "ढ़": 456,
  " करते": 457,
  " सर": 458,
  " कम": 459,
  "द्": 460,
  " मे": 461,
  "वि": 462,
  " बे": 463,
  " चु": 464,
  " अपनी": 465,
  "ूर": 466,
  " गई": 467,
  " दो": 468,
  " भा": 469,
  "गर": 470,
  " सब": 471,
  " अधिक": 472,
  " बी": 473,
  "पा": 474,
  " रही": 475,
  "ष्ट": 476,
  "शन": 477,
  " ऐ": 478,
  " जब": 479,
  "ये": 480,
  " जाए": 481,
  "ूल": 482,
  " जिस": 483,
  " देख": 484,
  " लगा": 485,
  " ला": 486,
  " बै": 487,
  "जा": 488,
  "ोट": 489,
  " सकते": 490,
  "म्म": 491,
  " कै": 492,
  " भार": 493,
  " निर्": 494,
  "च्छ": 495,
  "ंध": 496,
  " अनु": 497,
  "ूस": 498,
  " रूप": 499,
  "पी": 500,
  " तर": 501,
  " बता": 502,
  " खु": 503,
  "द्र": 504,
  "वे": 505,
  " करना": 506,
  "ौर": 507,
  " पहले": 508,
  "ीन": 509,
  "्स": 510,
  " होने": 511,
  " विश": 512,
  "बा": 513,
  " \"": 514,
  "हर": 515,
  " दी": 516,
  " ओ": 517,
  "च्च": 518,
  " करें": 519,
  "ुल": 520,
  "ड़ा": 521,
  "क्र": 522,
  " कार्य": 523,
  " उत्": 524,
  " रु": 525,
  " वर्": 526,
  " गए": 527,
  " २०": 528,
  "ेट": 529,
  " बात": 530,
  " उसने": 531,
  " नाम": 532,
  "ंक": 533,
  "क्स": 534,
  "मान": 535,
  " सभी": 536,
  " समय": 537,
  "्ल": 538,
  " इन": 539,
  "हां": 540,
  " अब": 541,
  " स्थ": 542,
  "ंट": 543,
  " इसके": 544,
  "वार": 545,
  " जान": 546,
  " ऑ": 547,
  " मो": 548,
  " वाले": 549,
  " द्व": 550,
  " पी": 551,
  " कह": 552,
  "ड़ी": 553,
  "बर": 554,
  "र्व": 555,
  " ३": 556,
  " सरकार": 557,
  " सकता": 558,
  "बी": 559,
  " कोई": 560,
  " उन्हें": 561,
  "ंत्री": 562,
  " उसे": 563,
  "ंप": 564,
  " जाता": 565,
  " ।": 566,
  "िट": 567,
  "योग": 568,
  "ोक": 569,
  "ोल": 570,
  " किसी": 571,
  " व्य": 572,
  "्यों": 573,
  " अच्छ": 574,
  "स्थ": 575,
  " प्रति": 576,
  "क्षा": 577,
  " काम": 578,
  "वर": 579,
  " गु": 580,
  " स्ट": 581,
  " शुर": 582,
  " क्या": 583,
  "चार": 584,
  " रख": 585,
  "रो": 586,
  "ंत": 587,
  "ार्ट": 588,
  " लोगों": 589,
  " द्वारा": 590,
  " सो": 591,
  " आपको": 592,
  " तरह": 593,
  " फिल": 594,
  " वा": 595,
  " क्ष": 596,
  "र्म": 597,
  "ंस": 598,
  "धान": 599,
  "क्त": 600,
  " बि": 601,
  "दि": 602,
  " विक": 603,
  " रुप": 604,
  "र्ट": 605,
  "कों": 606,
  "्यू": 607,
  "िली": 608,
  " जै": 609,
  "िल्": 610,
  " दु": 611,
  "म्मी": 612,
  "द्ध": 613,
  " उनके": 614,
  " हर": 615,
  "डी": 616,
  " टी": 617,
  "वं": 618,
  "ंह": 619,
  " लग": 620,
  " होगा": 621,
  " प्रा": 622,
  " सबसे": 623,
  " मैं": 624,
  "जे": 625,
  " ये": 626,
  " कई": 627,
  " फिर": 628,
  " ५": 629,
  "जन": 630,
  " फिल्म": 631,
  "म्": 632,
  "ज़": 633,
  " देश": 634,
  " होता": 635,
  "चा": 636,
  " साल": 637,
  " ४": 638,
  " हुआ": 639,
  " पास": 640,
  " दि": 641,
  "ड़े": 642,
  " सू": 643,
  " करता": 644,
  "बंध": 645,
  "प्र": 646,
  "ाई": 647,
  " पै": 648,
  " खेल": 649,
  " चाहिए": 650,
  "्यम": 651,
  "ारे": 652,
  " पि": 653,
  "ष्": 654,
  " हि": 655,
  "िका": 656,
  "ोर": 657,
  "कारी": 658,
  " भारत": 659,
  " चल": 660,
  "दार": 661,
  " इसे": 662,
  "वन": 663,
  "एस": 664,
  "प्त": 665,
  " पहु": 666,
  " बढ़": 667,
  "श्": 668,
  " बन": 669,
  "क्ट": 670,
  " एवं": 671,
  " सिंह": 672,
  " शुरू": 673,
  "फी": 674,
  " देखा": 675,
  "धार": 676,
  "िप": 677,
  " ग्र": 678,
  " मुख": 679,
  " २०१": 680,
  " मौ": 681,
  "क्ति": 682,
  "र्थ": 683,
  "ूर्": 684,
  " उसके": 685,
  " आज": 686,
  "ेत्र": 687,
  "मे": 688,
  " ना": 689,
  " लेकर": 690,
  "िक्ष": 691,
  " जन": 692,
  "र्स": 693,
  " घर": 694,
  "एक": 695,
  " जि": 696,
  "्रेस": 697,
  " खा": 698,
  " जाने": 699,
  " बताया": 700,
  " लि": 701,
  " प्रद": 702,
  " लड़": 703,
  " फै": 704,
  "जार": 705,
  "संद": 706,
  "ब्": 707,
  " बारे": 708,
  "मत": 709,
  "एं": 710,
  "यर": 711,
  " क्षेत्र": 712,
  "पर": 713,
  " क्यों": 714,
  " पहुंच": 715,
  "इस": 716,
  " हुई": 717,
  "मु": 718,
  "ताओं": 719,
  " नी": 720,
  " ता": 721,
  " बच्च": 722,
  " बु": 723,
  "िल्ली": 724,
  "्ञ": 725,
  "िवार": 726,
  " मान": 727,
  " खुश": 728,
  " सह": 729,
  "नाव": 730,
  "पुर": 731,
  " अव": 732,
  " पु": 733,
  " दौर": 734,
  " जर": 735,
  " साम": 736,
  "भाव": 737,
  " पसंद": 738,
  " दूस": 739,
  " आय": 740,
  "स्क": 741,
  " कारण": 742,
  " ओर": 743,
  " डि": 744,
  " ठ": 745,
  "न्न": 746,
  "्रा": 747,
  " अपना": 748,
  "दन": 749,
  " लिया": 750,
  "एम": 751,
  "सर": 752,
  " रो": 753,
  "ेष": 754,
  "ून": 755,
  " पार्ट": 756,
  "ोनों": 757,
  "ोजना": 758,
  "सान": 759,
  "तीय": 760,
  " -": 761,
  "मार": 762,
  "्त": 763,
  " जु": 764,
  "जर": 765,
  "लिए": 766,
  " अभ": 767,
  " शाम": 768,
  " झ": 769,
  " छो": 770,
  "ाली": 771,
  "ेंद्र": 772,
  " स्व": 773,
  " दोनों": 774,
  "िम": 775,
  " हाल": 776,
  "ूं": 777,
  " हा": 778,
  " कंप": 779,
  " होती": 780,
  " इं": 781,
  "्यादा": 782,
  " ६": 783,
  " समा": 784,
  " दौरान": 785,
  "हत": 786,
  " अन्य": 787,
  " तथा": 788,
  " स्वा": 789,
  " आई": 790,
  "श्य": 791,
  "दे": 792,
  " वर्ष": 793,
  "्ड": 794,
  " निक": 795,
  "त्व": 796,
  "ीड": 797,
  " उनकी": 798,
  " अग": 799,
  " प्रदेश": 800,
  " तै": 801,
  " रुपये": 802,
  "ेंगे": 803,
  " वाली": 804,
  " माँ": 805,
  " मद": 806,
  "झे": 807,
  "ूम": 808,
  "ाने": 809,
  "र्ड": 810,
  " दिल्ली": 811,
  "र्ष": 812,
  " क्र": 813,
  "ेड": 814,
  "ुक": 815,
  " अल": 816,
  "लय": 817,
  "्रीय": 818,
  " बीच": 819,
  "ॉल": 820,
  "सार": 821,
  " टीम": 822,
  " राज्य": 823,
  "नों": 824,
  " जाएगा": 825,
  " माम": 826,
  " ज्यादा": 827,
  " फोन": 828,
  " बैठ": 829,
  "ंदर": 830,
  "भाग": 831,
  "चे": 832,
  " सकती": 833,
  " खिला": 834,
  " प्रत": 835,
  " लिली": 836,
  " दर्": 837,
  "ंब": 838,
  " चुनाव": 839,
  " विशेष": 840,
  "्यक्ष": 841,
  "रण": 842,
  " मदद": 843,
  "चित": 844,
  "वाल": 845,
  "क्रम": 846,
  " आपके": 847,
  " पार्टी": 848,
  " काफी": 849,
  "ंग्रेस": 850,
  " सै": 851,
  " स्थित": 852,
  " यहां": 853,
  " उपयोग": 854,
  "ियां": 855,
  "वल": 856,
  "स्था": 857,
  " शिक्ष": 858,
  " इसलिए": 859,
  " अच्छा": 860,
  " ट्र": 861,
  " निय": 862,
  " स्क": 863,
  " शु": 864,
  " आव": 865,
  " कीमत": 866,
  "जू": 867,
  " पे": 868,
  " श्री": 869,
  " महिला": 870,
  " ,": 871,
  " करो": 872,
  " ई": 873,
  "द्य": 874,
  " बद": 875,
  "आई": 876,
  "गत": 877,
  " मन": 878,
  " ते": 879,
  "वाद": 880,
  " शामिल": 881,
  " अगर": 882,
  "त्म": 883,
  " पुल": 884,
  "ची": 885,
  " वो": 886,
  "ज्ञ": 887,
  " परि": 888,
  " ऐसे": 889,
  "शी": 890,
  "धी": 891,
  "म्मीद": 892,
  "ियो": 893,
  " कांग्रेस": 894,
  " बाहर": 895,
  "।\"": 896,
  " योजना": 897,
  "धा": 898,
  " क्योंकि": 899,
  "लो": 900,
  " ८": 901,
  " ली": 902,
  "हार": 903,
  " छा": 904,
  "..": 905,
  " किए": 906,
  "ेंट": 907,
  " अं": 908,
  " फ़": 909,
  " उम्मीद": 910,
  " देने": 911,
  " जैसे": 912,
  "िये": 913,
  "ेशन": 914,
  " निर्मा": 915,
  "लों": 916,
  " करती": 917,
  " तीन": 918,
  "टा": 919,
  " यु": 920,
  "त्रा": 921,
  "्यालय": 922,
  " दोस्त": 923,
  " जिन": 924,
  " टे": 925,
  " गां": 926,
  " पद": 927,
  " परी": 928,
  "णा": 929,
  " प्राप्त": 930,
  "स्ता": 931,
  " ऊ": 932,
  "ृत": 933,
  " जानकारी": 934,
  " इसमें": 935,
  " राष्ट": 936,
  " मत": 937,
  " ची": 938,
  "ोर्ट": 939,
  " ७": 940,
  "श्यक": 941,
  " होगी": 942,
  " सुर": 943,
  " मूल": 944,
  " सफ": 945,
  "सभा": 946,
  "इन": 947,
  " दिखा": 948,
  " जाती": 949,
  " बो": 950,
  " उसकी": 951,
  " तैय": 952,
  " पानी": 953,
  " ऐसा": 954,
  " कप": 955,
  " भाग": 956,
  " जारी": 957,
  " संबंध": 958,
  " भारतीय": 959,
  "णी": 960,
  " कॉ": 961,
  " बनाने": 962,
  " पिछ": 963,
  " १०": 964,
  "्प": 965,
  " पुलिस": 966,
  "वास": 967,
  " पता": 968,
  " इत": 969,
  " वै": 970,
  " आवश्यक": 971,
  " बॉ": 972,
  "करण": 973,
  " विकास": 974,
  "दान": 975,
  "चना": 976,
  " सुन": 977,
  " चाहते": 978,
  " मार्": 979,
  "जब": 980,
  "ेंद": 981,
  " चार": 982,
  "ूट": 983,
  "२०": 984,
  "िता": 985,
  " उठ": 986,
  " अला": 987,
  " '": 988,
  " बेह": 989,
  "ूर्ण": 990,
  "ोष": 991,
  " याद": 992,
  " विभाग": 993,
  " स्प": 994,
  "स्प": 995,
  " हों": 996,
  " होते": 997,
  " चौ": 998,
  "धिक": 999,
  " एस": 1000,
  " योग": 1001,
  "इट": 1002,
  "ीस": 1003,
  " समझ": 1004,
  " मुझे": 1005,
  " कभी": 1006,
  "जपा": 1007,
  " इससे": 1008,
  " प्रश": 1009,
  " पूर्व": 1010,
  " अलावा": 1011,
  "ष्ठ": 1012,
  "ोध": 1013,
  " हूं": 1014,
  " लाख": 1015,
  " आने": 1016,
  " इंड": 1017,
  "्यमंत्री": 1018,
  " शा": 1019,
  "क्टर": 1020,
  "टे": 1021,
  " अभी": 1022,
  " मोदी": 1023,
  " दें": 1024,
  " व्यव": 1025,
  "र्क": 1026,
  " करे": 1027,
  " हमारे": 1028,
  " प्रदर्": 1029,
  "तु": 1030,
  "सूस": 1031,
  " जग": 1032,
  "निया": 1033,
  " चे": 1034,
  " पूरी": 1035,
  "ंबर": 1036,
  "यन": 1037,
  " \n\n": 1038,
  " जीवन": 1039,
  "ियर": 1040,
  " अध्यक्ष": 1041,
  "ंगे": 1042,
  "त्ता": 1043,
  " वहीं": 1044,
  " विश्व": 1045,
  " भर": 1046,
  " लोक": 1047,
  " फैस": 1048,
  " प्रो": 1049,
  " खे": 1050,
  " गो": 1051,
  "वान": 1052,
  " वाप": 1053,
  " व्या": 1054,
  " छोट": 1055,
  " कुमार": 1056,
  "र्य": 1057,
  "पूर्ण": 1058,
  " ऑफ": 1059,
  " संग": 1060,
  " अनुसार": 1061,
  " बड़ा": 1062,
  " तब": 1063,
  "तम": 1064,
  "ार्थ": 1065,
  "मेंट": 1066,
  "क्षण": 1067,
  "शा": 1068,
  "नि": 1069,
  " भाजपा": 1070,
  "िश्": 1071,
  " चला": 1072,
  "्यान": 1073,
  "ॉम": 1074,
  " पूछ": 1075,
  "ोजन": 1076,
  "हन": 1077,
  " कोश": 1078,
  " मिला": 1079,
  "ुरु": 1080,
  " इसी": 1081,
  " व्यक्ति": 1082,
  " आए": 1083,
  " अलग": 1084,
  "ाइन": 1085,
  " यदि": 1086,
  " उच्च": 1087,
  " आया": 1088,
  " कंपनी": 1089,
  "ुरा": 1090,
  "०००": 1091,
  " हे": 1092,
  "हम": 1093,
  " कैम": 1094,
  " बस": 1095,
  "मै": 1096,
  "जों": 1097,
  "र्फ": 1098,
  " महा": 1099,
  "ाइल": 1100,
  "ाया": 1101,
  " डॉ": 1102,
  " शी": 1103,
  "वाई": 1104,
  " ज़": 1105,
  " मंत्री": 1106,
  " डे": 1107,
  " जिसमें": 1108,
  "शि": 1109,
  " महसूस": 1110,
  " पत्र": 1111,
  " इसका": 1112,
  "पाल": 1113,
  " बल्": 1114,
  "ल्प": 1115,
  " आद": 1116,
  " एम": 1117,
  " मांग": 1118,
  " रे": 1119,
  "निक": 1120,
  " जिला": 1121,
  " करी": 1122,
  " दर": 1123,
  " परिवार": 1124,
  " दिए": 1125,
  "तन": 1126,
  " दूर": 1127,
  " जाना": 1128,
  "!\"": 1129,
  "ाला": 1130,
  " बैंक": 1131,
  " ९": 1132,
  " तैयार": 1133,
  " आगे": 1134,
  " जल्": 1135,
  " १९": 1136,
  "मुख": 1137,
  " होना": 1138,
  " हाथ": 1139,
  " मिले": 1140,
  " आधार": 1141,
  "भव": 1142,
  " कोशिश": 1143,
  " बंद": 1144,
  " बड़ी": 1145,
  " प्रदर्शन": 1146,
  "ीक": 1147,
  " रै": 1148,
  "स्या": 1149,
  " सामने": 1150,
  " केवल": 1151,
  "जूद": 1152,
  " आस": 1153,
  " परीक्षा": 1154,
  "ंगल": 1155,
  " विचार": 1156,
  "ध्यम": 1157,
  "हाँ": 1158,
  "्ला": 1159,
  " जाते": 1160,
  " १२": 1161,
  " सेवा": 1162,
  "तिक": 1163,
  " आर": 1164,
  " मैच": 1165,
  "ांकि": 1166,
  " जगह": 1167,
  "िज": 1168,
  " प्रकार": 1169,
  " मुख्यमंत्री": 1170,
  "ूरत": 1171,
  " तहत": 1172,
  "वेदन": 1173,
  " उत्पा": 1174,
  "वेश": 1175,
  " प्रधान": 1176,
  " आदि": 1177,
  " डी": 1178,
  "ायर": 1179,
  " करोड़": 1180,
  "न्द": 1181,
  " शे": 1182,
  "प्ता": 1183,
  "भि": 1184,
  " लड़की": 1185,
  " नौ": 1186,
  " दा": 1187,
  "कर्": 1188,
  "रिक": 1189,
  "मित": 1190,
  " उनका": 1191,
  " सर्व": 1192,
  "तार": 1193,
  "बे": 1194,
  " पो": 1195,
  " कार्यक्रम": 1196,
  " देखने": 1197,
  " ध्यान": 1198,
  " गा": 1199,
  " तु": 1200,
  "ल्ड": 1201,
  " महत्व": 1202,
  " विध": 1203,
  " वापस": 1204,
  "खी": 1205,
  "ुक्त": 1206,
  " खिलाफ": 1207,
  " मामले": 1208,
  " /": 1209,
  "िले": 1210,
  "सल": 1211,
  " दूसरे": 1212,
  " स्थान": 1213,
  "आर": 1214,
  " रुपए": 1215,
  " पक्ष": 1216,
  "न्द्र": 1217,
  "मंत्री": 1218,
  "ख्या": 1219,
  " राम": 1220,
  " कृ": 1221,
  " स्कूल": 1222,
  " खुद": 1223,
  "ब्ध": 1224,
  "ताब": 1225,
  " समस्या": 1226,
  " उपल": 1227,
  "ियन": 1228,
  "राज": 1229,
  "यी": 1230,
  " आम": 1231,
  " धन": 1232,
  " किसान": 1233,
  " कैसे": 1234,
  " नए": 1235,
  " पिछले": 1236,
  " जीत": 1237,
  " सद": 1238,
  " जहां": 1239,
  " उत्तर": 1240,
  "काश": 1241,
  "ूत": 1242,
  " चीन": 1243,
  " अधिकार": 1244,
  "ेशा": 1245,
  " प्रे": 1246,
  " करेंगे": 1247,
  "र्मा": 1248,
  " पूरा": 1249,
  " उपलब्ध": 1250,
  " छात्र": 1251,
  " मुस्क": 1252,
  " चाहता": 1253,
  " माध्यम": 1254,
  " जबकि": 1255,
  " डाल": 1256,
  " ग्राम": 1257,
  " हजार": 1258,
  " केंद्र": 1259,
  "ड़ी": 1260,
  " लॉ": 1261,
  " मुख्य": 1262,
  " पीछ": 1263,
  "ासन": 1264,
  " छोटी": 1265,
  "ायत": 1266,
  " जे": 1267,
  " खरी": 1268,
  " दिनों": 1269,
  " बच्चों": 1270,
  " ढ": 1271,
  " निर्माण": 1272,
  "ंगा": 1273,
  " करीब": 1274,
  "पन": 1275,
  "बल": 1276,
  " प्रभाव": 1277,
  " नजर": 1278,
  "यह": 1279,
  " पं": 1280,
  "ेंस": 1281,
  " गल": 1282,
  " शहर": 1283,
  "स्थान": 1284,
  "ग्र": 1285,
  " उम्मीदवार": 1286,
  " अस": 1287,
  "शत": 1288,
  " वित": 1289,
  " शिक्षा": 1290,
  " स्तर": 1291,
  " हालांकि": 1292,
  "्टी": 1293,
  " फैसला": 1294,
  "ूरी": 1295,
  "मो": 1296,
  "शल": 1297,
  " भे": 1298,
  "िस्ट": 1299,
  " प्य": 1300,
  " डा": 1301,
  " नई": 1302,
  " सही": 1303,
  " अच्छी": 1304,
  "चान": 1305,
  "बाद": 1306,
  " अधिकारी": 1307,
  " हमेशा": 1308,
  " लाभ": 1309,
  "भिन्न": 1310,
  " देते": 1311,
  "द्यालय": 1312,
  "टना": 1313,
  " अंदर": 1314,
  " १५": 1315,
  "हरा": 1316,
  " रंग": 1317,
  "िटी": 1318,
  " राशि": 1319,
  " ब्ल": 1320,
  " अंत": 1321,
  " हमें": 1322,
  " बड़े": 1323,
  " वाला": 1324,
  " करके": 1325,
  " दुनिया": 1326,
  " स्थिति": 1327,
  "रों": 1328,
  " सीट": 1329,
  "ैंड": 1330,
  " बेहतर": 1331,
  " सिर्फ": 1332,
  "ुआ": 1333,
  " उत्स": 1334,
  " पूरे": 1335,
  " नीचे": 1336,
  "न्होंने": 1337,
  " आवेदन": 1338,
  "ायक": 1339,
  "वरी": 1340,
  "एल": 1341,
  " समाज": 1342,
  "जय": 1343,
  "र्ण": 1344,
  " गुण": 1345,
  " विभिन्न": 1346,
  " इसकी": 1347,
  " मीड": 1348,
  " मही": 1349,
  " निर्देश": 1350,
  "जह": 1351,
  " जांच": 1352,
  " ट्रे": 1353,
  "अप": 1354,
  "कु": 1355,
  "भग": 1356,
  "ार्क": 1357,
  " ब्र": 1358,
  "ूँ": 1359,
  " कल": 1360,
  "्ले": 1361,
  " चि": 1362,
  " कुल": 1363,
  " जाएगी": 1364,
  " रखा": 1365,
  " पड़": 1366,
  " गेंद": 1367,
  " आपकी": 1368,
  "डा": 1369,
  " मी": 1370,
  "ग्री": 1371,
  " टि": 1372,
  " कहना": 1373,
  " मंद": 1374,
  " कहते": 1375,
  " लेने": 1376,
  " कैमरा": 1377,
  " कौ": 1378,
  " मीडिया": 1379,
  " कर्म": 1380,
  " :": 1381,
  " सम्म": 1382,
  " प्रतिशत": 1383,
  " गांव": 1384,
  " मुस्कुरा": 1385,
  "आप": 1386,
  " सके": 1387,
  " समर्थ": 1388,
  " शिव": 1389,
  "र्च": 1390,
  " सच": 1391,
  " रहने": 1392,
  " सफल": 1393,
  " हिस्": 1394,
  " आवश्यकता": 1395,
  " स्म": 1396,
  " प्रदान": 1397,
  " एन": 1398,
  " जनता": 1399,
  "दों": 1400,
  " मध": 1401,
  " ऑन": 1402,
  "र्ती": 1403,
  " वजह": 1404,
  "ड़ा": 1405,
  "स्थित": 1406,
  "षा": 1407,
  " संख्या": 1408,
  "यास": 1409,
  " जिससे": 1410,
  " सदस": 1411,
  " रन": 1412,
  "ियम": 1413,
  "क्शन": 1414,
  " महत्वपूर्ण": 1415,
  " पीछे": 1416,
  " म्प": 1417,
  " जिसके": 1418,
  " पहली": 1419,
  " बाजार": 1420,
  " स्था": 1421,
  "र्या": 1422,
  "स्ते": 1423,
  "स्थ्य": 1424,
  " ठीक": 1425,
  "हाय": 1426,
  "ालय": 1427,
  "उस": 1428,
  "ॉप": 1429,
  " पिता": 1430,
  " मेरे": 1431,
  " रोज": 1432,
  "वाह": 1433,
  "उन": 1434,
  " यू": 1435,
  " उसका": 1436,
  "अल": 1437,
  " नेता": 1438,
  "वीर": 1439,
  " प्रधानमंत्री": 1440,
  " जल": 1441,
  " फीस": 1442,
  " श्र": 1443,
  " पक": 1444,
  "धि": 1445,
  " पांच": 1446,
  "ेक": 1447,
  " घोष": 1448,
  "भार": 1449,
  " बेन": 1450,
  " सूची": 1451,
  " व्याप": 1452,
  " एक्स": 1453,
  " बच्चे": 1454,
  " खान": 1455,
  " मूल्य": 1456,
  " सौ": 1457,
  "सि": 1458,
  " होंगे": 1459,
  "राम": 1460,
  "क्रिया": 1461,
  " बैठक": 1462,
  " मजब": 1463,
  " मिली": 1464,
  " पढ़": 1465,
  " विधान": 1466,
  " लाल": 1467,
  "लाइन": 1468,
  "ुट": 1469,
  " पत्": 1470,
  "लब": 1471,
  " लिये": 1472,
  " लगाया": 1473,
  "?\"": 1474,
  "ड़े": 1475,
  "ल्स": 1476,
  "तों": 1477,
  "ण्ड": 1478,
  "ग्": 1479,
  " बिना": 1480,
  " राष्ट्रीय": 1481,
  " फ़ोन": 1482,
  " रिप": 1483,
  " मंदिर": 1484,
  " लगभग": 1485,
  " तरफ": 1486,
  " खोज": 1487,
  "एन": 1488,
  "ज्ञान": 1489,
  " रखने": 1490,
  " वीड": 1491,
  "क्षित": 1492,
  " पार": 1493,
  "ंदी": 1494,
  "ंज": 1495,
  " स्वास्थ्य": 1496,
  "ेद": 1497,
  "काल": 1498,
  " प्यार": 1499,
  " अमे": 1500,
  " इला": 1501,
  " जिसे": 1502,
  " फ्र": 1503,
  " नोट": 1504,
  " शीर्ष": 1505,
  "वाब": 1506,
  "ोस": 1507,
  "ुत": 1508,
  " वहां": 1509,
  " तेजी": 1510,
  " थो": 1511,
  " तरी": 1512,
  " बाल": 1513,
  "त्री": 1514,
  " नगर": 1515,
  "गार": 1516,
  " न्यू": 1517,
  " खिल": 1518,
  " यादव": 1519,
  " बनाया": 1520,
  " सामान": 1521,
  " लगे": 1522,
  "धन": 1523,
  "विधा": 1524,
  "स्तव": 1525,
  " भूम": 1526,
  "डे": 1527,
  "र्चा": 1528,
  " वीडियो": 1529,
  "द्धि": 1530,
  "श्च": 1531,
  " ११": 1532,
  "ोजित": 1533,
  " पेश": 1534,
  " लगता": 1535,
  "श्व": 1536,
  " चा": 1537,
  "मिक": 1538,
  " खास": 1539,
  "करी": 1540,
  " पूछा": 1541,
  " पाल": 1542,
  " प्रक्रिया": 1543,
  " प्रमुख": 1544,
  " शर्मा": 1545,
  " चिक": 1546,
  " नर": 1547,
  "रीर": 1548,
  "झा": 1549,
  " बज": 1550,
  " जल्द": 1551,
  " राजनी": 1552,
  " बजे": 1553,
  " अंतर": 1554,
  " चाहती": 1555,
  " बदल": 1556,
  "नाथ": 1557,
  "एच": 1558,
  "बह": 1559,
  " भर्ती": 1560,
  " ऐसी": 1561,
  "ीय": 1562,
  "टन": 1563,
  " परेश": 1564,
  " ब्रा": 1565,
  " भाव": 1566,
  " राष्ट्र": 1567,
  " साह": 1568,
  " अम": 1569,
  " चै": 1570,
  " जरूरत": 1571,
  "सम": 1572,
  " जिले": 1573,
  "फोन": 1574,
  " शिक": 1575,
  "पित": 1576,
  " मुताब": 1577,
  " रिपोर्ट": 1578,
  " यात्रा": 1579,
  " अच्छे": 1580,
  " अति": 1581,
  " आरो": 1582,
  "फ़": 1583,
  "ार्ड": 1584,
  "चाल": 1585,
  " सुरक्षा": 1586,
  " लाइ": 1587,
  " इंडिया": 1588,
  " बच": 1589,
  "ॉक": 1590,
  "गल": 1591,
  " खरीद": 1592,
  " रात": 1593,
  " सहाय": 1594,
  " अर्": 1595,
  " व्यवस्था": 1596,
  " २०१९": 1597,
  " !": 1598,
  "चर": 1599,
  " बढ़": 1600,
  " मौजूद": 1601,
  " छोटे": 1602,
  "ेंड": 1603,
  " कान": 1604,
  " मुताबिक": 1605,
  " अर": 1606,
  " शादी": 1607,
  " सुविधा": 1608,
  "बार": 1609,
  "ित्र": 1610,
  "द्योग": 1611,
  " मश": 1612,
  " खेलना": 1613,
  " इतना": 1614,
  " वृ": 1615,
  " यही": 1616,
  " अंक": 1617,
  " वेब": 1618,
  "ताल": 1619,
  "हाल": 1620,
  " महीने": 1621,
  "त्मक": 1622,
  "लाई": 1623,
  " दिख": 1624,
  "ुड": 1625,
  " शेयर": 1626,
  " दिल": 1627,
  " कित": 1628,
  "र्न": 1629,
  " गै": 1630,
  " २५": 1631,
  " छोड़": 1632,
  " चुन": 1633,
  " क्ल": 1634,
  " अग्र": 1635,
  " स्मार्ट": 1636,
  " रोक": 1637,
  "दम": 1638,
  "कान": 1639,
  " सर्": 1640,
  " दौ": 1641,
  " लिख": 1642,
  " शरीर": 1643,
  " दर्ज": 1644,
  " खिलौ": 1645,
  " मिन": 1646,
  "न्ना": 1647,
  " मंत्र": 1648,
  " युवा": 1649,
  " २००": 1650,
  " माह": 1651,
  " देता": 1652,
  " आक": 1653,
  " देखते": 1654,
  " नया": 1655,
  " जवाब": 1656,
  " इंटर": 1657,
  " विधानसभा": 1658,
  "फा": 1659,
  "लि": 1660,
  " सोच": 1661,
  "ंटे": 1662,
  " सैम": 1663,
  "ंका": 1664,
  "राब": 1665,
  "पति": 1666,
  " समर्थन": 1667,
  " टै": 1668,
  " राय": 1669,
  " शक्ति": 1670,
  " मि": 1671,
  " पोस्ट": 1672,
  " प्रयास": 1673,
  " चलते": 1674,
  "सिक": 1675,
  "वत्ता": 1676,
  " उद": 1677,
  "ंडी": 1678,
  " दिव": 1679,
  " बनाए": 1680,
  " खो": 1681,
  "नो": 1682,
  " रिक": 1683,
  " पुर": 1684,
  " आख": 1685,
  " टॉम": 1686,
  "ष्य": 1687,
  "टक": 1688,
  " लक्ष": 1689,
  " लगाने": 1690,
  " सुबह": 1691,
  " अवसर": 1692,
  " आयोजित": 1693,
  " तौर": 1694,
  "ांत": 1695,
  " गुणवत्ता": 1696,
  " संबंधित": 1697,
  "न्म": 1698,
  " अभि": 1699,
  " गि": 1700,
  "युक्त": 1701,
  " पंच": 1702,
  " मिश": 1703,
  " गांधी": 1704,
  " किस": 1705,
  " बल्कि": 1706,
  " चुके": 1707,
  "ार्म": 1708,
  " क्व": 1709,
  "ीर": 1710,
  "क्सी": 1711,
  " ताकि": 1712,
  " तस्": 1713,
  "गम": 1714,
  " ?": 1715,
  "यू": 1716,
  " बोर्ड": 1717,
  " संघ": 1718,
  "िश्चित": 1719,
  " भग": 1720,
  "ियल": 1721,
  " अधिकारियों": 1722,
  " ऊपर": 1723,
  " शुरुआ": 1724,
  " कट": 1725,
  " रेल": 1726,
  " विष": 1727,
  "हरी": 1728,
  " कार्ड": 1729,
  " साफ": 1730,
  " दल": 1731,
  " पार्क": 1732,
  "इड": 1733,
  "बंधन": 1734,
  "सं": 1735,
  " लगातार": 1736,
  " सेट": 1737,
  "जेपी": 1738,
  " सवाल": 1739,
  " लो": 1740,
  "वरण": 1741,
  "स्ती": 1742,
  " सरकारी": 1743,
  " उत्साह": 1744,
  " बचा": 1745,
  " सहित": 1746,
  " दूसरी": 1747,
  " गर्": 1748,
  "रि": 1749,
  "ंबई": 1750,
  " नंबर": 1751,
  " करा": 1752,
  "मता": 1753,
  " फे": 1754,
  "बाइल": 1755,
  "र्श": 1756,
  "किंग": 1757,
  "ैक": 1758,
  " थीं": 1759,
  "म्प": 1760,
  " शो": 1761,
  "मक": 1762,
  " न्या": 1763,
  "गू": 1764,
  "उन्होंने": 1765,
  "रोना": 1766,
  " एल": 1767,
  " माना": 1768,
  " वायर": 1769,
  "तिम": 1770,
  "मीन": 1771,
  " भु": 1772,
  "ूब": 1773,
  "जु": 1774,
  " चारों": 1775,
  " वास्तव": 1776,
  "व्य": 1777,
  "षण": 1778,
  " लगी": 1779,
  " निकल": 1780,
  "ठन": 1781,
  "िकेट": 1782,
  " तेज": 1783,
  " आपका": 1784,
  "तान": 1785,
  " जाये": 1786,
  "ंद्र": 1787,
  "ैल": 1788,
  " सुंदर": 1789,
  " विरो": 1790,
  " जिनकी": 1791,
  "संग": 1792,
  " रहता": 1793,
  " टिम्मी": 1794,
  " मम्मी": 1795,
  "कृत": 1796,
  " एड": 1797,
  "नई": 1798,
  "भर": 1799,
  " संप": 1800,
  "शु": 1801,
  "किल": 1802,
  " गब": 1803,
  " फीसदी": 1804,
  " रैम": 1805,
  "्यता": 1806,
  " सत": 1807,
  " टेस्ट": 1808,
  "जें": 1809,
  " आरोप": 1810,
  "्वी": 1811,
  " गुरु": 1812,
  "कृ": 1813,
  "ॉट": 1814,
  " किसानों": 1815,
  " ड्र": 1816,
  " देना": 1817,
  "मारी": 1818,
  " बिज": 1819,
  "णाम": 1820,
  " हास": 1821,
  " १३": 1822,
  "यान": 1823,
  " सांस": 1824,
  "वुड": 1825,
  " ०": 1826,
  " महिलाओं": 1827,
  " आदमी": 1828,
  " ज्ञ": 1829,
  "साइट": 1830,
  "स्ट्र": 1831,
  " चर्चा": 1832,
  " अफ": 1833,
  " कमी": 1834,
  " रि": 1835,
  " उठा": 1836,
  "कम": 1837,
  " बने": 1838,
  " कोर्ट": 1839,
  " वन": 1840,
  "्यवाद": 1841,
  "ट्ट": 1842,
  " १६": 1843,
  " मना": 1844,
  "िशा": 1845,
  " पर्या": 1846,
  "ंदा": 1847,
  " गयी": 1848,
  "ॉन": 1849,
  "जिक": 1850,
  "विद्यालय": 1851,
  "नेट": 1852,
  " सुनिश्चित": 1853,
  "लेज": 1854,
  " १८": 1855,
  " आदेश": 1856,
  " मोबाइल": 1857,
  " सीमा": 1858,
  " चुकी": 1859,
  " मैंने": 1860,
  " ३०": 1861,
  " धर्म": 1862,
  " मिलने": 1863,
  "ंभ": 1864,
  ",\"": 1865,
  " विषय": 1866,
  "तियों": 1867,
  " बीजेपी": 1868,
  " अनुभव": 1869,
  "तक": 1870,
  "लिली": 1871,
  "),": 1872,
  " हासिल": 1873,
  " १४": 1874,
  " करवा": 1875,
  " नही": 1876,
  " सिर": 1877,
  " पूर्ण": 1878,
  "राव": 1879,
  " तुम": 1880,
  "एफ": 1881,
  " आसान": 1882,
  " निवेश": 1883,
  " दोस्तों": 1884,
  "ोप": 1885,
  " पेट": 1886,
  " लें": 1887,
  "िक्स": 1888,
  "िनि": 1889,
  " परिव": 1890,
  " जन्म": 1891,
  "00": 1892,
  " अर्थ": 1893,
  "लीवुड": 1894,
  " बढ़ा": 1895,
  "न्हें": 1896,
  " मजबूत": 1897,
  "गन": 1898,
  " मध्य": 1899,
  " खबर": 1900,
  " रहते": 1901,
  " वर्ग": 1902,
  " सम्मान": 1903,
  " उत्पादन": 1904,
  "केट": 1905,
  "यं": 1906,
  "शाली": 1907,
  " ऑनलाइन": 1908,
  " समु": 1909,
  " हमने": 1910,
  " प्रकाश": 1911,
  " पेड़": 1912,
  " आसानी": 1913,
  "पे": 1914,
  " भगवान": 1915,
  " सहयोग": 1916,
  " परिणाम": 1917,
  " स्वी": 1918,
  " अंतिम": 1919,
  " गति": 1920,
  "खन": 1921,
  "ंतर": 1922,
  " कोरोना": 1923,
  " पाठ": 1924,
  " छोटा": 1925,
  "तरा": 1926,
  " करेगा": 1927,
  "पना": 1928,
  " प्रत्य": 1929,
  "ॉड": 1930,
  "सु": 1931,
  " जमा": 1932,
  " चयन": 1933,
  " अस्प": 1934,
  " प्ल": 1935,
  " सामान्य": 1936,
  "धे": 1937,
  " संभाव": 1938,
  " एंड": 1939,
  " समित": 1940,
  " सला": 1941,
  " नौकरी": 1942,
  "्ब": 1943,
  "साय": 1944,
  " अप्र": 1945,
  "टरी": 1946,
  " तस्वीर": 1947,
  "खंड": 1948,
  " गले": 1949,
  "हुल": 1950,
  " तला": 1951,
  " डर": 1952,
  " तुल": 1953,
  "फे": 1954,
  " पकड़": 1955,
  " दृ": 1956,
  " देव": 1957,
  " सचिव": 1958,
  " लोकसभा": 1959,
  "नर": 1960,
  "ंख": 1961,
  " पाए": 1962,
  "मन": 1963,
  " वेबसाइट": 1964,
  " संचाल": 1965,
  " हमारी": 1966,
  "्यो": 1967,
  " कदम": 1968,
  " सोशल": 1969,
  " प्ले": 1970,
  "रीज": 1971,
  " आवा": 1972,
  "मैं": 1973,
  " मिलता": 1974,
  " वाह": 1975,
  " स्ना": 1976,
  " तय": 1977,
  " फी": 1978,
  " मार्च": 1979,
  "न्स": 1980,
  " लिखा": 1981,
  "फ्ट": 1982,
  "कट": 1983,
  "गो": 1984,
  "सू": 1985,
  " ब्रांड": 1986,
  " चले": 1987,
  " बनी": 1988,
  " घोषणा": 1989,
  " चिकित": 1990,
  "चानक": 1991,
  " उम": 1992,
  " यून": 1993,
  " दिखाई": 1994,
  "ूह": 1995,
  "मति": 1996,
  " जीबी": 1997,
  "लू": 1998,
  " उद्": 1999,
  "त्ति": 2000,
  " भोजन": 2001,
  " शुरुआत": 2002,
  " गिर": 2003,
  "ियान": 2004,
  " हिस्सा": 2005,
  "्ज": 2006,
  " कर्": 2007,
  " विदेश": 2008,
  " व्यापार": 2009,
  " मंगल": 2010,
  " उड़": 2011,
  "कर्ता": 2012,
  " ट्रेन": 2013,
  " पाया": 2014,
  " मेरी": 2015,
  "ीण": 2016,
  "िक्": 2017,
  " जून": 2018,
  " मुका": 2019,
  " श्रे": 2020,
  " मिनट": 2021,
  "षि": 2022,
  " गं": 2023,
  " दुखी": 2024,
  " जाएंगे": 2025,
  "ित्य": 2026,
  " लागू": 2027,
  "ोत्": 2028,
  " पक्षी": 2029,
  " विप": 2030,
  " प्रशासन": 2031,
  " प्रत्येक": 2032,
  " विकेट": 2033,
  "नीय": 2034,
  " विद्य": 2035,
  " सूचना": 2036,
  " घटना": 2037,
  " सें": 2038,
  " पहुंचे": 2039,
  " 1": 2040,
  " होकर": 2041,
  "तमान": 2042,
  " इंत": 2043,
  "ष्ण": 2044,
  " जमीन": 2045,
  "बू": 2046,
  " भू": 2047,
  " निर्ण": 2048,
  " फर": 2049,
  " २०२०": 2050,
  " छात्रों": 2051,
  " ऋ": 2052,
  " अंग": 2053,
  " बिल": 2054,
  " टाइ": 2055,
  " धो": 2056,
  " खाने": 2057,
  " कौन": 2058,
  " सुना": 2059,
  " डिज": 2060,
  " चुका": 2061,
  " हाई": 2062,
  " बदला": 2063,
  " कंपन": 2064,
  " आयोजन": 2065,
  "र्थिक": 2066,
  " सदस्य": 2067,
  " समिति": 2068,
  "ॉय": 2069,
  "ड़क": 2070,
  " हूँ": 2071,
  "उट": 2072,
  "्रीम": 2073,
  " ति": 2074,
  "क्या": 2075,
  " कठ": 2076,
  " मौके": 2077,
  "ांस": 2078,
  " विधायक": 2079,
  " तीस": 2080,
  " माता": 2081,
  "्रो": 2082,
  " गण": 2083,
  "ार्ज": 2084,
  " सित": 2085,
  " क्रिकेट": 2086,
  "िकल": 2087,
  " मुद्": 2088,
  " कहीं": 2089,
  " खुशी": 2090,
  "ष्टि": 2091,
  " शाह": 2092,
  "ायद": 2093,
  " उपस्थित": 2094,
  " तेल": 2095,
  " उससे": 2096,
  " प्रयोग": 2097,
  "ंता": 2098,
  " ५०": 2099,
  " सुरक्षित": 2100,
  "ंडल": 2101,
  " शिकायत": 2102,
  " क्षेत्रों": 2103,
  "्रम": 2104,
  " अत": 2105,
  "नल": 2106,
  "तंत्र": 2107,
  "रिका": 2108,
  " खेलने": 2109,
  " जानते": 2110,
  " खूब": 2111,
  "वें": 2112,
  " मशीन": 2113,
  " निकाल": 2114,
  "ोटो": 2115,
  "तरी": 2116,
  " विकल्प": 2117,
  " नियंत्र": 2118,
  " बर": 2119,
  "धिकार": 2120,
  " उत्साहित": 2121,
  " पुरा": 2122,
  "ात": 2123,
  "ष्ट्रीय": 2124,
  " दू": 2125,
  " मतलब": 2126,
  " बॉक्स": 2127,
  "वो": 2128,
  " कला": 2129,
  "श्म": 2130,
  " राहुल": 2131,
  " ग्रामीण": 2132,
  "टल": 2133,
  " मज़": 2134,
  "ीत": 2135,
  "कल": 2136,
  "्रोल": 2137,
  " प्रवेश": 2138,
  "कत": 2139,
  " अख": 2140,
  " मेड": 2141,
  " रण": 2142,
  "लेकिन": 2143,
  " आर्थिक": 2144,
  "साथ": 2145,
  " मुकाब": 2146,
  " डाय": 2147,
  "हित": 2148,
  " २०१८": 2149,
  "तिहा": 2150,
  " कार्र": 2151,
  "वधान": 2152,
  " धन्यवाद": 2153,
  " घंटे": 2154,
  "हरे": 2155,
  " सारा": 2156,
  " शुक्र": 2157,
  " रेड": 2158,
  " भूमिका": 2159,
  "जल": 2160,
  " नियम": 2161,
  " टिक": 2162,
  " कमा": 2163,
  "हि": 2164,
  " रहेगा": 2165,
  " जरूरी": 2166,
  "ड़ों": 2167,
  " कार्यालय": 2168,
  " बोल": 2169,
  " वी": 2170,
  " निर्णय": 2171,
  "प्प": 2172,
  "गढ़": 2173,
  " बारिश": 2174,
  " गे": 2175,
  "स्ताव": 2176,
  " विश्वविद्यालय": 2177,
  "रिया": 2178,
  " कार्रवाई": 2179,
  " फूल": 2180,
  " त्र": 2181,
  " सुधार": 2182,
  "तृ": 2183,
  " अगले": 2184,
  " संस्थान": 2185,
  "शनल": 2186,
  "वासी": 2187,
  " भाई": 2188,
  " भारी": 2189,
  " रोग": 2190,
  " सोम": 2191,
  " खत्म": 2192,
  " तरीके": 2193,
  " विरोध": 2194,
  "१९": 2195,
  " परेशान": 2196,
  " आता": 2197,
  " तुलना": 2198,
  " जिम्म": 2199,
  " क्षमता": 2200,
  "ंगी": 2201,
  " पंचायत": 2202,
  " भाषा": 2203,
  " विस्त": 2204,
  " प्रस्ताव": 2205,
  "दर": 2206,
  "र्तन": 2207,
  "ल्क": 2208,
  " प्रभावित": 2209,
  " लै": 2210,
  " वक्त": 2211,
  " मुश्": 2212,
  " आकर्ष": 2213,
  " वालों": 2214,
  " पहला": 2215,
  " शान": 2216,
  " सामग्री": 2217,
  "वीं": 2218,
  "भीर": 2219,
  "दारी": 2220,
  " अस्पताल": 2221,
  " सफलता": 2222,
  "क्षि": 2223,
  " बेहद": 2224,
  "बाजी": 2225,
  " गये": 2226,
  " बल्ले": 2227,
  "थि": 2228,
  "बि": 2229,
  "चन": 2230,
  " रव": 2231,
  " वर्तमान": 2232,
  " शब्": 2233,
  " लौ": 2234,
  " लं": 2235,
  "ब्ल": 2236,
  "्वास": 2237,
  "लेट": 2238,
  " बिहार": 2239,
  " सारे": 2240,
  " कारखा": 2241,
  "हे": 2242,
  " अभियान": 2243,
  " फाय": 2244,
  " साझा": 2245,
  "धर": 2246,
  "चल": 2247,
  " देर": 2248,
  " मार": 2249,
  " मुंबई": 2250,
  "श्न": 2251,
  " हार": 2252,
  "ूक": 2253,
  " मिलेगा": 2254,
  " संभावना": 2255,
  " बनने": 2256,
  " जय": 2257,
  " मार्ग": 2258,
  " प्रशिक्ष": 2259,
  " मुश्किल": 2260,
  "ेंद्रीय": 2261,
  "गु": 2262,
  " लु": 2263,
  "ंटी": 2264,
  "स्टम": 2265,
  " अहम": 2266,
  " किये": 2267,
  " रोजगार": 2268,
  " गलत": 2269,
  " जोर": 2270,
  "ांति": 2271,
  " स्मार्टफोन": 2272,
  " आते": 2273,
  "दाय": 2274,
  " एक्ट": 2275,
  "क्षम": 2276,
  " धी": 2277,
  " मां": 2278,
  " निर्धार": 2279,
  " लेते": 2280,
  " दिस": 2281,
  "प्ताह": 2282,
  "पु": 2283,
  " खाना": 2284,
  "१०": 2285,
  " निर्माताओं": 2286,
  " दिशा": 2287,
  " लक्ष्य": 2288,
  " चरण": 2289,
  " बिजली": 2290,
  " बयान": 2291,
  "ील": 2292,
  "्रीन": 2293,
  "िंट": 2294,
  "ूर्ति": 2295,
  "रिक्त": 2296,
  "ठी": 2297,
  " लंब": 2298,
  " फॉ": 2299,
  "पक": 2300,
  "दर्": 2301,
  " कराने": 2302,
  " कपूर": 2303,
  " अग्रणी": 2304,
  "ॉलर": 2305,
  " सस्ते": 2306,
  "ुओं": 2307,
  " गर्म": 2308,
  " जैसी": 2309,
  " लड़का": 2310,
  "िरी": 2311,
  " २४": 2312,
  " अमेरिका": 2313,
  " लेख": 2314,
  " रहती": 2315,
  "कुल": 2316,
  "रु": 2317,
  " मई": 2318,
  " आयोग": 2319,
  " रिली": 2320,
  " मैदान": 2321,
  "ूड": 2322,
  " देशों": 2323,
  "पास": 2324,
  " डेट": 2325,
  " ग्राह": 2326,
  " संस्था": 2327,
  " चाल": 2328,
  " व्यक्त": 2329,
  " विश्वास": 2330,
  "िड": 2331,
  " इतनी": 2332,
  " पौ": 2333,
  " सामा": 2334,
  " एयर": 2335,
  " अतिरिक्त": 2336,
  " वोट": 2337,
  " स्थापित": 2338,
  " वृद्धि": 2339,
  "स्कार": 2340,
  "प्ले": 2341,
  " सामना": 2342,
  " जुलाई": 2343,
  " जल्दी": 2344,
  "विष्य": 2345,
  "र्ग": 2346,
  " लॉन्": 2347,
  " स्वयं": 2348,
  "वत": 2349,
  "ौती": 2350,
  " तकनी": 2351,
  "सब": 2352,
  "ूबर": 2353,
  " जित": 2354,
  " गंभीर": 2355,
  " संयुक्त": 2356,
  " मुला": 2357,
  " ग्रह": 2358,
  "पू": 2359,
  "्वर": 2360,
  " उल्": 2361,
  " पहचान": 2362,
  " नरेंद्र": 2363,
  "गतान": 2364,
  " उसी": 2365,
  " बदलाव": 2366,
  "र्जी": 2367,
  " यहाँ": 2368,
  " सक्षम": 2369,
  " टिम": 2370,
  " साब": 2371,
  " १७": 2372,
  " यानी": 2373,
  "सो": 2374,
  "म्ब": 2375,
  " नागर": 2376,
  " जाकर": 2377,
  " महारा": 2378,
  " सोमवार": 2379,
  " आपने": 2380,
  "ॉर्ड": 2381,
  " शै": 2382,
  " सामाजिक": 2383,
  " एच": 2384,
  " बाव": 2385,
  " खोल": 2386,
  " उपकरण": 2387,
  " डिस्": 2388,
  "ियोजना": 2389,
  " फा": 2390,
  " तम": 2391,
  "ोरे": 2392,
  "शील": 2393,
  " कराया": 2394,
  "ंडे": 2395,
  " नुक": 2396,
  " कानून": 2397,
  " सोचा": 2398,
  "रात": 2399,
  "कर्ताओं": 2400,
  " भविष्य": 2401,
  " शायद": 2402,
  "रीब": 2403,
  "धिकारी": 2404,
  "ोह": 2405,
  "दु": 2406,
  " जनवरी": 2407,
  " अप्रैल": 2408,
  " इंतजार": 2409,
  " शि": 2410,
  "द्व": 2411,
  " पूजा": 2412,
  " स्पष्ट": 2413,
  " नुकसान": 2414,
  " भुगतान": 2415,
  " संर": 2416,
  " महान": 2417,
  "न्दी": 2418,
  " रखें": 2419,
  " नेताओं": 2420,
  "ानीय": 2421,
  " बिक": 2422,
  " जिसका": 2423,
  " दुकान": 2424,
  " परियोजना": 2425,
  " इन्": 2426,
  " तलाश": 2427,
  " हवा": 2428,
  " मेरा": 2429,
  " पड़ा": 2430,
  "नु": 2431,
  " इंच": 2432,
  " मॉड": 2433,
  "भाल": 2434,
  " सहायता": 2435,
  "अलग": 2436,
  " सात": 2437,
  " संत": 2438,
  "ओमी": 2439,
  " जाय": 2440,
  "धानी": 2441,
  " बॉलीवुड": 2442,
  "मर": 2443,
  "माण": 2444,
  " चली": 2445,
  " चीजों": 2446,
  "त्रों": 2447,
  " बावजूद": 2448,
  " बह": 2449,
  "वादी": 2450,
  "फ्": 2451,
  " सप्ताह": 2452,
  "क्ता": 2453,
  " सलाह": 2454,
  "ंदगी": 2455,
  " १००": 2456,
  " उत": 2457,
  "ूपी": 2458,
  " शुभ": 2459,
  " अध्य": 2460,
  " चमक": 2461,
  "५०": 2462,
  "ियाँ": 2463,
  " पैसे": 2464,
  " कॉलेज": 2465,
  " उम्मीदवारों": 2466,
  "्रेड": 2467,
  " कहानी": 2468,
  " अचानक": 2469,
  "षद": 2470,
  " बुध": 2471,
  "ेन": 2472,
  " मंत्रालय": 2473,
  "स्व": 2474,
  " राजस्थान": 2475,
  " उनसे": 2476,
  " समाप्त": 2477,
  " उम्र": 2478,
  " ज्ञान": 2479,
  " केंद्रीय": 2480,
  " शुक्रवार": 2481,
  " 2": 2482,
  " सल": 2483,
  "ध्यक्ष": 2484,
  " लॉन्च": 2485,
  " निभा": 2486,
  " सुपर": 2487,
  "जो": 2488,
  " देखना": 2489,
  " सांसद": 2490,
  " लड़": 2491,
  " फ्ल": 2492,
  " आती": 2493,
  "स्म": 2494,
  " प्रेम": 2495,
  " राज्यों": 2496,
  " बल": 2497,
  " सिद्ध": 2498,
  "लेक्ट": 2499,
  " भेज": 2500,
  "र्जा": 2501,
  " मात्रा": 2502,
  " ब्रांडों": 2503,
  " गर्व": 2504,
  "ठा": 2505,
  " आयु": 2506,
  " हेतु": 2507,
  " राजनीति": 2508,
  "ित्व": 2509,
  " €": 2510,
  "टने": 2511,
  " वही": 2512,
  " बजट": 2513,
  " साइ": 2514,
  " वित्त": 2515,
  "उंड": 2516,
  " तत्": 2517,
  " २१": 2518,
  "ोधित": 2519,
  "म्बर": 2520,
  "सै": 2521,
  " अगस्त": 2522,
  " गठ": 2523,
  "ियाणा": 2524,
  "चारियों": 2525,
  " टिकट": 2526,
  " प्रभ": 2527,
  "मिट": 2528,
  " रखते": 2529,
  "स्टर": 2530,
  " रहें": 2531,
  " समूह": 2532,
  " स्थानीय": 2533,
  " पृ": 2534,
  " कंपनियों": 2535,
  " प्रण": 2536,
  " इंस्ट": 2537,
  " दबा": 2538,
  " मैक्स": 2539,
  " किलो": 2540,
  " दक्षि": 2541,
  " निर्धारित": 2542,
  "यों": 2543,
  " कू": 2544,
  " निगम": 2545,
  "सन": 2546,
  " समी": 2547,
  " विन": 2548,
  "ंडा": 2549,
  " लंबे": 2550,
  " अनुमति": 2551,
  " शानदार": 2552,
  " समान": 2553,
  " एमए": 2554,
  " उद्योग": 2555,
  " फ्रंट": 2556,
  " निजी": 2557,
  "...": 2558,
  " रेलवे": 2559,
  "बाज": 2560,
  " तारी": 2561,
  " बहा": 2562,
  " जरिए": 2563,
  " नागरिक": 2564,
  " सार": 2565,
  " पत्नी": 2566,
  "तृत्व": 2567,
  " खर्च": 2568,
  "सित": 2569,
  "९९": 2570,
  " रज": 2571,
  " मंगलवार": 2572,
  " कप्ता": 2573,
  " मं": 2574,
  " नव": 2575,
  "ियोग": 2576,
  "क्सर": 2577,
  " खराब": 2578,
  " पालन": 2579,
  " राजनीतिक": 2580,
  "धु": 2581,
  " रखना": 2582,
  "ष्ट्र": 2583,
  " थोड़ा": 2584,
  " संगठन": 2585,
  "टो": 2586,
  " राष्ट्रपति": 2587,
  " रहना": 2588,
  " पैदा": 2589,
  "घा": 2590,
  " सैमसंग": 2591,
  " ओवर": 2592,
  " करेगी": 2593,
  " वरि": 2594,
  " शक्तिशाली": 2595,
  " डॉक्टर": 2596,
  " जोड़": 2597,
  " देती": 2598,
  " मल": 2599,
  " मिलती": 2600,
  " कृषि": 2601,
  "फर": 2602,
  " विद्यालय": 2603,
  " अभिने": 2604,
  " लेना": 2605,
  " सीख": 2606,
  " जैसा": 2607,
  " खोजने": 2608,
  "साद": 2609,
  "फल": 2610,
  "हान": 2611,
  "खनऊ": 2612,
  " प्रार": 2613,
  " वरिष्ठ": 2614,
  "असल": 2615,
  " जरूर": 2616,
  "पोर्ट": 2617,
  " रू": 2618,
  "वै": 2619,
  " मौसम": 2620,
  " गाय": 2621,
  " आग": 2622,
  " प्रिय": 2623,
  " सलमान": 2624,
  " चार्ज": 2625,
  "वर्": 2626,
  " मिलकर": 2627,
  " कर्मचारियों": 2628,
  "ौल": 2629,
  "उंट": 2630,
  " देखी": 2631,
  " फिट": 2632,
  " संभव": 2633,
  " फोटो": 2634,
  "नेस": 2635,
  " डिग्री": 2636,
  " पंजा": 2637,
  " फरवरी": 2638,
  " व्": 2639,
  " नेतृत्व": 2640,
  " फल": 2641,
  " केन्द्र": 2642,
  " प्रस्त": 2643,
  "दूस": 2644,
  " न्याया": 2645,
  " तैयारी": 2646,
  "सत": 2647,
  " पुरु": 2648,
  " अध्ययन": 2649,
  "ृह": 2650,
  " चढ़": 2651,
  "्राम": 2652,
  "नियर": 2653,
  " करनी": 2654,
  " इच्छ": 2655,
  " दुर्": 2656,
  " रविवार": 2657,
  " छह": 2658,
  "ंसा": 2659,
  "खे": 2660,
  " पुन": 2661,
  " सड़क": 2662,
  " पर्याप्त": 2663,
  " २२": 2664,
  "इसके": 2665,
  " पीएम": 2666,
  "ियाओमी": 2667,
  "कारों": 2668,
  " बैटरी": 2669,
  " साबित": 2670,
  " डॉलर": 2671,
  "थम": 2672,
  " शन": 2673,
  " चोट": 2674,
  "मुझे": 2675,
  "म्ह": 2676,
  "रल": 2677,
  " मामला": 2678,
  " शिक्षक": 2679,
  " एमएएच": 2680,
  "चारी": 2681,
  " आराम": 2682,
  " पड़": 2683,
  " नेट": 2684,
  " पाने": 2685,
  " विवाद": 2686,
  "िक्र": 2687,
  " सुनी": 2688,
  " सिस्टम": 2689,
  " उत्पाद": 2690,
  " पुरुष": 2691,
  " सॉ": 2692,
  " गुज": 2693,
  "त्ती": 2694,
  " सेना": 2695,
  "दिन": 2696,
  "ेंज": 2697,
  " पट": 2698,
  "लाया": 2699,
  "चीत": 2700,
  " बू": 2701,
  " मोह": 2702,
  " देखकर": 2703,
  " प्रशिक्षण": 2704,
  " बुधवार": 2705,
  " दिसंबर": 2706,
  " दिवस": 2707,
  " संके": 2708,
  "ँच": 2709,
  " सभा": 2710,
  "ुप": 2711,
  " बनाई": 2712,
  "यम": 2713,
  " मू": 2714,
  "थमिक": 2715,
  " कारो": 2716,
  ")।": 2717,
  " पहुंचा": 2718,
  " शनिवार": 2719,
  " बेटी": 2720,
  " भावना": 2721,
  " संब": 2722,
  "प्स": 2723,
  " कहती": 2724,
  " सीरीज": 2725,
  "ेत": 2726,
  "बो": 2727,
  " दवा": 2728,
  " इनमें": 2729,
  " बनाना": 2730,
  " देवी": 2731,
  "लोड": 2732,
  " बातचीत": 2733,
  " सीएम": 2734,
  " पाय": 2735,
  " रोड": 2736,
  "लेख": 2737,
  " २०१७": 2738,
  "सों": 2739,
  "क्षक": 2740,
  "देव": 2741,
  "डर": 2742,
  " कमरे": 2743,
  " अक्ट": 2744,
  " आउट": 2745,
  " हाथों": 2746,
  " अन्ना": 2747,
  "अब": 2748,
  " खी": 2749,
  " जानवर": 2750,
  " मौका": 2751,
  " प्रतिनि": 2752,
  " मानव": 2753,
  "पिता": 2754,
  "भारत": 2755,
  "द्योगिक": 2756,
  "स्तक": 2757,
  "ड्ड": 2758,
  " हिंदी": 2759,
  " अक्सर": 2760,
  " देकर": 2761,
  "इक": 2762,
  "हली": 2763,
  " रिलीज": 2764,
  " हिन्दी": 2765,
  " आखिरी": 2766,
  " युव": 2767,
  " घा": 2768,
  " प्राथमिक": 2769,
  "विध": 2770,
  "्सा": 2771,
  "ाहरण": 2772,
  "द्रा": 2773,
  " अवधि": 2774,
  "दीप": 2775,
  " वर्षों": 2776,
  " ४०": 2777,
  " दस": 2778,
  "क्षी": 2779,
  " रिश्": 2780,
  "िटल": 2781,
  " असर": 2782,
  " रक्षा": 2783,
  " मुस्कुराया": 2784,
  " दिला": 2785,
  " यूपी": 2786,
  "ारण": 2787,
  "स्ल": 2788,
  "जै": 2789,
  " ज़": 2790,
  "मीटर": 2791,
  " दक्षिण": 2792,
  "वह": 2793,
  "त्त": 2794,
  " चंद्र": 2795,
  " हरियाणा": 2796,
  " फ़": 2797,
  " भूल": 2798,
  " भ्र": 2799,
  "र्गत": 2800,
  " क्लिक": 2801,
  "िल्म": 2802,
  "खर": 2803,
  " नो": 2804,
  " टीवी": 2805,
  " री": 2806,
  " नदी": 2807,
  "राष्ट्रीय": 2808,
  "मैन": 2809,
  "ंव": 2810,
  "राह": 2811,
  " चुना": 2812,
  " राहत": 2813,
  " ट्वी": 2814,
  " आँ": 2815,
  " अक्टूबर": 2816,
  " आत्म": 2817,
  " इंग": 2818,
  "ेलिया": 2819,
  "वंबर": 2820,
  " आखिर": 2821,
  " स्वीकार": 2822,
  " पारी": 2823,
  " पल": 2824,
  "जरी": 2825,
  " बिल्": 2826,
  "ुअल": 2827,
  "न्त": 2828,
  "कोर": 2829,
  " बनाता": 2830,
  " शासन": 2831,
  " हल्": 2832,
  " चिंता": 2833,
  " संस": 2834,
  " खेले": 2835,
  " आश": 2836,
  " ३५": 2837,
  " पर्य": 2838,
  "३०": 2839,
  "ट्र": 2840,
  " सारी": 2841,
  " कठिन": 2842,
  "फिक": 2843,
  " करोड़": 2844,
  " ऑफिस": 2845,
  " फिल्मों": 2846,
  " वैसे": 2847,
  " श्रेणी": 2848,
  "दो": 2849,
  "श्चर्य": 2850,
  " मगर": 2851,
  " विरा": 2852,
  " रिज": 2853,
  " विस्तार": 2854,
  " विज्ञान": 2855,
  " डिस्प्ले": 2856,
  "दिष्ट": 2857,
  " स्वागत": 2858,
  " आकाश": 2859,
  " टुक": 2860,
  "जि": 2861,
  "्यास": 2862,
  "ज्ज": 2863,
  "शिप": 2864,
  " पड़े": 2865,
  " मज": 2866,
  " दूसरा": 2867,
  "ज्ञानिक": 2868,
  "ब्र": 2869,
  " पॉ": 2870,
  " बर्": 2871,
  " निर": 2872,
  " लगाए": 2873,
  " लाइन": 2874,
  " मतदान": 2875,
  " वायरस": 2876,
  " जंगल": 2877,
  "ोत्तम": 2878,
  "चि": 2879,
  " आठ": 2880,
  "लाब": 2881,
  "ोरी": 2882,
  " दोप": 2883,
  "ोलन": 2884,
  "प्रिय": 2885,
  " उद्देश": 2886,
  "स्ट्रेलिया": 2887,
  " सुप": 2888,
  " विकसित": 2889,
  " आश्चर्य": 2890,
  "शिया": 2891,
  " कप्तान": 2892,
  "्रेट": 2893,
  " जिसकी": 2894,
  " मेहन": 2895,
  "ज़र": 2896,
  "जीव": 2897,
  "लैंड": 2898,
  "देशक": 2899,
  " तुम्ह": 2900,
  " चीजें": 2901,
  " क्वाल": 2902,
  " तुर": 2903,
  "त्मा": 2904,
  " प्रतियोग": 2905,
  " हल": 2906,
  " कॉल": 2907,
  "्यूटर": 2908,
  " पति": 2909,
  "है": 2910,
  "कीय": 2911,
  " हॉ": 2912,
  " दावा": 2913,
  " नै": 2914,
  " आवाज": 2915,
  "िवर्स": 2916,
  " संपर्क": 2917,
  " सहायक": 2918,
  " परिवर्तन": 2919,
  " सीटों": 2920,
  " धीरे": 2921,
  " समेत": 2922,
  " ऊर्जा": 2923,
  "ृति": 2924,
  " बताते": 2925,
  " पदों": 2926,
  " फैसले": 2927,
  " हिला": 2928,
  " पंजाब": 2929,
  " मछ": 2930,
  " नवंबर": 2931,
  " प्रबंधन": 2932,
  " आल": 2933,
  " गरीब": 2934,
  "ंकर": 2935,
  " खाते": 2936,
  " खिलाड़ी": 2937,
  "लु": 2938,
  " दर्द": 2939,
  "ामा": 2940,
  " शोर": 2941,
  " स्टेशन": 2942,
  " इलाज": 2943,
  " सिल": 2944,
  "ारोह": 2945,
  " किताब": 2946,
  " अथ": 2947,
  "नतम": 2948,
  "वाही": 2949,
  " प्रत्या": 2950,
  "तिहास": 2951,
  " पढ़": 2952,
  "स्त्र": 2953,
  " चेहरे": 2954,
  " प्रव": 2955,
  " दूध": 2956,
  " हरा": 2957,
  "ग्रह": 2958,
  " पश्च": 2959,
  " आकार": 2960,
  " विद्यार्थ": 2961,
  " अका": 2962,
  " प्रचार": 2963,
  " मामलों": 2964,
  " परीक्षण": 2965,
  " देंगे": 2966,
  " समारोह": 2967,
  " किन": 2968,
  "रित": 2969,
  "भो": 2970,
  " लड़के": 2971,
  " कक्षा": 2972,
  " दिखाया": 2973,
  " टॉ": 2974,
  " चिकित्सा": 2975,
  " रहेंगे": 2976,
  "श्चित": 2977,
  " रोल": 2978,
  " जता": 2979,
  " गौर": 2980,
  "िसा": 2981,
  " छि": 2982,
  "प्रदेश": 2983,
  " घूम": 2984,
  " मेहनत": 2985,
  " प्राइ": 2986,
  " जिल": 2987,
  "ेदार": 2988,
  "ज्ञा": 2989,
  " टूट": 2990,
  " दोपहर": 2991,
  "ानों": 2992,
  " आंक": 2993,
  " कही": 2994,
  " संस्क": 2995,
  " माइ": 2996,
  " जुड़े": 2997,
  " अके": 2998,
  " उठाया": 2999,
  " कर्मचारी": 3000,
  " पहन": 3001,
  " सर्वोत्तम": 3002,
  "कूल": 3003,
  " मजे": 3004,
  " इतिहास": 3005,
  " मुस्कुराई": 3006,
  " मुकाबले": 3007,
  " खींच": 3008,
  "जित": 3009,
  "्यूट": 3010,
  " निश्चित": 3011,
  " २८": 3012,
  " आसपास": 3013,
  " नार": 3014,
  " कार्यों": 3015,
  " अक्ष": 3016,
  " हंस": 3017,
  " आधारित": 3018,
  " प्रणाली": 3019,
  "ेर": 3020,
  " प्रमाण": 3021,
  "लेक्ट्र": 3022,
  " राजा": 3023,
  " जागर": 3024,
  " सत्ता": 3025,
  "दूर": 3026,
  " कितना": 3027,
  " प्रसाद": 3028,
  " ताप": 3029,
  " दरवा": 3030,
  " प्रश्न": 3031,
  "हो": 3032,
  " मॉडल": 3033,
  " बनाकर": 3034,
  " भूमि": 3035,
  "आज": 3036,
  " सोन": 3037,
  " व्यवहार": 3038,
  " जायेगा": 3039,
  " उदाहरण": 3040,
  "कात": 3041,
  " सूर्य": 3042,
  " पैसा": 3043,
  "त्स": 3044,
  "वेद": 3045,
  "र्त": 3046,
  " सुख": 3047,
  " संक्रम": 3048,
  " बचत": 3049,
  "दूसरे": 3050,
  "बता": 3051,
  " फाइन": 3052,
  " परिषद": 3053,
  " बुरा": 3054,
  " उसमें": 3055,
  " वाहन": 3056,
  "दाता": 3057,
  " ठा": 3058,
  " शोध": 3059,
  " मनो": 3060,
  " उपा": 3061,
  "फ्र": 3062,
  "फ्त": 3063,
  "न्ट": 3064,
  " रखी": 3065,
  " २३": 3066,
  " कोहली": 3067,
  " शुल्क": 3068,
  " नीति": 3069,
  " संग्र": 3070,
  " मिट": 3071,
  " परेशानी": 3072,
  " वजन": 3073,
  " पड़ता": 3074,
  "दुर": 3075,
  "१८": 3076,
  " चाहे": 3077,
  "पूर्व": 3078,
  "ैर": 3079,
  " बेच": 3080,
  " प्ला": 3081,
  "न्या": 3082,
  "मेश": 3083,
  " बीमार": 3084,
  " रचना": 3085,
  " प्रस्तुत": 3086,
  "यदि": 3087,
  " शूट": 3088,
  " दौड़": 3089,
  "्वा": 3090,
  " मिलेगी": 3091,
  " अद": 3092,
  "रिकी": 3093,
  " जू": 3094,
  " सावधान": 3095,
  " अनुकूल": 3096,
  " घोषित": 3097,
  "ंघ": 3098,
  " प्रथम": 3099,
  " देगा": 3100,
  "श्रे": 3101,
  "ड़ियों": 3102,
  " ट्वीट": 3103,
  "ध्या": 3104,
  " आंद": 3105,
  " रहेगी": 3106,
  "ाना": 3107,
  "्यु": 3108,
  " मजेदार": 3109,
  "्याण": 3110,
  " भवन": 3111,
  " लॉक": 3112,
  " कैमरे": 3113,
  "बॉ": 3114,
  " सम्ब": 3115,
  " प्री": 3116,
  " मंच": 3117,
  " बड़ी": 3118,
  " चित्र": 3119,
  "्याज": 3120,
  " प्लेट": 3121,
  "यु": 3122,
  " सकें": 3123,
  " डिजाइन": 3124,
  " इनके": 3125,
  "न्तु": 3126,
  "रीन": 3127,
  " हिंद": 3128,
  " संकेत": 3129,
  "पान": 3130,
  " भीतर": 3131,
  "सीसी": 3132,
  " पुरस्कार": 3133,
  " भरो": 3134,
  " पैर": 3135,
  " समाधान": 3136,
  " जॉ": 3137,
  "डाउन": 3138,
  " शांति": 3139,
  " कारोबार": 3140,
  " लाने": 3141,
  " जैक": 3142,
  " रिकॉर्ड": 3143,
  "एँ": 3144,
  "काम": 3145,
  " हमारा": 3146,
  " आंख": 3147,
  " पुराने": 3148,
  "टिंग": 3149,
  "श्मीर": 3150,
  " प्रियंका": 3151,
  " गोल": 3152,
  " सदस्यों": 3153,
  " गौ": 3154,
  "ंजी": 3155,
  " जाएं": 3156,
  " चीनी": 3157,
  " ती": 3158,
  " स्वतंत्र": 3159,
  "तो": 3160,
  " गुरुवार": 3161,
  "रावट": 3162,
  " इंग्ल": 3163,
  " उद्देश्य": 3164,
  "कू": 3165,
  "्तीय": 3166,
  " ज़ियाओमी": 3167,
  " अपे": 3168,
  " मुलाकात": 3169,
  " स्थापना": 3170,
  "कृति": 3171,
  "और": 3172,
  " अली": 3173,
  " श्रद्ध": 3174,
  "अगर": 3175,
  "व्यव": 3176,
  "रान": 3177,
  " पहा": 3178,
  " हटा": 3179,
  " गिरावट": 3180,
  " वस्त": 3181,
  " वेतन": 3182,
  " समस्याओं": 3183,
  "टाने": 3184,
  " सार्व": 3185,
  " बढ़ाने": 3186,
  " सितंबर": 3187,
  "प्ल": 3188,
  " अनिवार": 3189,
  " वार्": 3190,
  " २६": 3191,
  "श्रेष्ठ": 3192,
  "न्ध": 3193,
  " उनको": 3194,
  " ऊंच": 3195,
  " किर": 3196,
  " खुला": 3197,
  "ायी": 3198,
  " दर्श": 3199,
  " अखिल": 3200,
  " शब्द": 3201,
  " स्क्रीन": 3202,
  " बिक्री": 3203,
  " टा": 3204,
  " इन्हें": 3205,
  "नोवो": 3206,
  "कै": 3207,
  " स्टार": 3208,
  "वर्क": 3209,
  " साइट": 3210,
  " डाउन": 3211,
  "श्वर": 3212,
  "ल्ला": 3213,
  " जीव": 3214,
  " गैर": 3215,
  "चक": 3216,
  " नियमित": 3217,
  " पेट्रोल": 3218,
  " यूनिवर्स": 3219,
  " सफाई": 3220,
  "केश": 3221,
  " एफ": 3222,
  " तह": 3223,
  " सीधे": 3224,
  "ांक": 3225,
  " बाकी": 3226,
  " निश": 3227,
  "कल्प": 3228,
  " पहल": 3229,
  " स्कूलों": 3230,
  " बजा": 3231,
  " उचित": 3232,
  "वां": 3233,
  " विजय": 3234,
  "दय": 3235,
  "िशन": 3236,
  " टो": 3237,
  " ड्राइ": 3238,
  "कारा": 3239,
  "स्तर": 3240,
  " कब": 3241,
  " ३१": 3242,
  " अने": 3243,
  "ग्राम": 3244,
  " तुरंत": 3245,
  "सेना": 3246,
  " ब्लॉ": 3247,
  "िनी": 3248,
  " प्लान": 3249,
  "जाम": 3250,
  " खाद्य": 3251,
  " विशेषज्ञ": 3252,
  "ल्ट": 3253,
  "जनिक": 3254,
  " पंजी": 3255,
  " स्वादिष्ट": 3256,
  " इलेक्ट्र": 3257,
  " आइ": 3258,
  "ूरज": 3259,
  " दूरी": 3260,
  " घु": 3261,
  " खिलौना": 3262,
  " तभी": 3263,
  " मज़ा": 3264,
  " चिल्": 3265,
  "जोर": 3266,
  "त्रियों": 3267,
  " विदेशी": 3268,
  " स्कोर": 3269,
  "पि": 3270,
  "कभी": 3271,
  "्न": 3272,
  " सेवन": 3273,
  "म्स": 3274,
  "ष्टा": 3275,
  " डेटा": 3276,
  "बु": 3277,
  " निरा": 3278,
  " मीटर": 3279,
  " फायदा": 3280,
  " दश": 3281,
  "धरी": 3282,
  "कियों": 3283,
  "श्री": 3284,
  " कूद": 3285,
  " समीक्षा": 3286,
  " बजाय": 3287,
  "ंधे": 3288,
  " सत्र": 3289,
  "त्तीस": 3290,
  " सर्वश्रेष्ठ": 3291,
  " अनिवार्य": 3292,
  " क्ला": 3293,
  " खुल": 3294,
  "बीआई": 3295,
  " पोर्ट": 3296,
  "पत्र": 3297,
  " नवी": 3298,
  " योगी": 3299,
  " बातें": 3300,
  "ेदारी": 3301,
  "ारों": 3302,
  " क्रम": 3303,
  " धर": 3304,
  " जानता": 3305,
  " बैठे": 3306,
  " कोर": 3307,
  " उनमें": 3308,
  " वित्तीय": 3309,
  "चार्य": 3310,
  " पिताजी": 3311,
  "विधान": 3312,
  "ोग्राम": 3313,
  " दया": 3314,
  " छूट": 3315,
  " बिग": 3316,
  "११": 3317,
  " बंग": 3318,
  " फाइ": 3319,
  " दबाव": 3320,
  "राध": 3321,
  " चलने": 3322,
  " यूर": 3323,
  " कल्याण": 3324,
  "हल": 3325,
  "स्ट्री": 3326,
  "अपने": 3327,
  " जिन्हें": 3328,
  " कवि": 3329,
  "ेक्ट": 3330,
  " विराट": 3331,
  "ेय": 3332,
  "मेल": 3333,
  " एक्सप": 3334,
  "छा": 3335,
  "ोधन": 3336,
  " अश": 3337,
  " सीखा": 3338,
  " गू": 3339,
  " गी": 3340,
  " पहुंची": 3341,
  " बीमारी": 3342,
  " गुजरात": 3343,
  " थोक": 3344,
  " गठबंधन": 3345,
  " जम": 3346,
  " भले": 3347,
  " अनुमान": 3348,
  " संजय": 3349,
  " नियंत्रण": 3350,
  " तत्काल": 3351,
  " आगा": 3352,
  " २७": 3353,
  " लागत": 3354,
  " उपाय": 3355,
  " रोमा": 3356,
  "धिकारिक": 3357,
  "पद": 3358,
  " पाई": 3359,
  " मुद्रा": 3360,
  "्रिय": 3361,
  " राजधानी": 3362,
  "ड़िया": 3363,
  "द्द": 3364,
  "डेट": 3365,
  " सार्वजनिक": 3366,
  " नम": 3367,
  " गलक्सी": 3368,
  " आर्ट": 3369,
  "खों": 3370,
  " अमेरिकी": 3371,
  " संग्रह": 3372,
  " संदेश": 3373,
  " लोकप्रिय": 3374,
  " सुप्रीम": 3375,
  " तनाव": 3376,
  " कपड़े": 3377,
  " इसने": 3378,
  " व्यवसाय": 3379,
  "ाइड": 3380,
  " अंग्रे": 3381,
  " परिस": 3382,
  " पदार्थ": 3383,
  "ूँगा": 3384,
  "सिद्ध": 3385,
  " सजा": 3386,
  "स्लिम": 3387,
  "टॉम": 3388,
  " उत्तरा": 3389,
  " ख़": 3390,
  "ंजन": 3391,
  " ४५": 3392,
  " रुक": 3393,
  " खेलते": 3394,
  "न्व": 3395,
  "जूदा": 3396,
  " इतने": 3397,
  "बीर": 3398,
  " अना": 3399,
  " संसा": 3400,
  "प्ति": 3401,
  " योग्य": 3402,
  "शाला": 3403,
  " किलोमीटर": 3404,
  " नामक": 3405,
  " अमित": 3406,
  " काल": 3407,
  " मैने": 3408,
  " गुप्ता": 3409,
  " कारखाने": 3410,
  " हित": 3411,
  " स्वामी": 3412,
  "पया": 3413,
  " पुस्तक": 3414,
  "१२": 3415,
  " महाराष्ट्र": 3416,
  " संश": 3417,
  " गाँ": 3418,
  " हिस्से": 3419,
  " तापमान": 3420,
  " आंदोलन": 3421,
  " अनुर": 3422,
  "नगर": 3423,
  " विमान": 3424,
  " रोकने": 3425,
  " बहादुर": 3426,
  " काट": 3427,
  " तीसरे": 3428,
  " अरब": 3429,
  " संचालित": 3430,
  " स्वर": 3431,
  " सक्रिय": 3432,
  "जीत": 3433,
  "नै": 3434,
  " शौ": 3435,
  " इंजी": 3436,
  " युवाओं": 3437,
  " मार्केट": 3438,
  " लंबी": 3439,
  " प्रती": 3440,
  "वती": 3441,
  " खूबस": 3442,
  " बड़े": 3443,
  " नारा": 3444,
  " फिलहाल": 3445,
  " मिश्र": 3446,
  " बीज": 3447,
  " मेडिकल": 3448,
  "घर": 3449,
  "ट्स": 3450,
  "त्ते": 3451,
  " रास्ते": 3452,
  " सूरज": 3453,
  " लिंक": 3454,
  " निदेशक": 3455,
  " स्वस्थ": 3456,
  " कने": 3457,
  " भेजा": 3458,
  " दीप": 3459,
  " ब्लॉक": 3460,
  " पीठ": 3461,
  " कोल": 3462,
  " आन": 3463,
  " अंतर्गत": 3464,
  "ोरेज": 3465,
  " त्व": 3466,
  "थे": 3467,
  " मस": 3468,
  " भरा": 3469,
  " स्टोर": 3470,
  " मछली": 3471,
  "१५": 3472,
  " प्रोड": 3473,
  " ग्राहकों": 3474,
  " संगीत": 3475,
  "डिया": 3476,
  "ज़ी": 3477,
  " स्टोरेज": 3478,
  " तोड़": 3479,
  " वाय": 3480,
  "चिका": 3481,
  " चुनौती": 3482,
  " आधिकारिक": 3483,
  " प्रबंध": 3484,
  " विवरण": 3485,
  " वैज्ञानिक": 3486,
  " रखे": 3487,
  " स्वच्छ": 3488,
  "स्तान": 3489,
  " किरदार": 3490,
  " स्टी": 3491,
  " मुक्त": 3492,
  " योगदान": 3493,
  " सिम": 3494,
  " उत्प": 3495,
  " लिस्ट": 3496,
  "थी": 3497,
  " साध": 3498,
  " प्रभारी": 3499,
  " समुद्र": 3500,
  " रिश्ते": 3501,
  " पूर्": 3502,
  " २०१६": 3503,
  " जाति": 3504,
  "ंतु": 3505,
  "ोने": 3506,
  "रेलू": 3507,
  " जिन्होंने": 3508,
  "पीएल": 3509,
  " जिम्मेदारी": 3510,
  "विंद": 3511,
  " ट्व": 3512,
  " विभा": 3513,
  " टेक्": 3514,
  " तमाम": 3515,
  " न्यायालय": 3516,
  " ग्रुप": 3517,
  " अथवा": 3518,
  " निष्": 3519,
  " मिया": 3520,
  " क्स": 3521,
  "जनक": 3522,
  " चौधरी": 3523,
  "्टर": 3524,
  " बगी": 3525,
  "्यक्रम": 3526,
  " वितरण": 3527,
  "सेज": 3528,
  " वास्तविक": 3529,
  " मौजूदा": 3530,
  "गज": 3531,
  " गुस्": 3532,
  " मंडल": 3533,
  " लखनऊ": 3534,
  " दरअसल": 3535,
  " अपेक्षा": 3536,
  "्मा": 3537,
  "ूंगा": 3538,
  "ेलन": 3539,
  "क्कर": 3540,
  " होनी": 3541,
  "ूर्तिक": 3542,
  "यल": 3543,
  " जिनमें": 3544,
  " ऋण": 3545,
  " चलता": 3546,
  " बच्चा": 3547,
  " कौशल": 3548,
  " दूसरों": 3549,
  "द्रगन": 3550,
  "उत्": 3551,
  " पर्व": 3552,
  " चलो": 3553,
  "पने": 3554,
  " आये": 3555,
  " करियर": 3556,
  " मुस्लिम": 3557,
  "वाना": 3558,
  " तरीका": 3559,
  "तः": 3560,
  " दाम": 3561,
  " मोट": 3562,
  " बेटे": 3563,
  " फसल": 3564,
  " लिमिट": 3565,
  " यूनिवर्सिटी": 3566,
  " विशाल": 3567,
  " पहुंचने": 3568,
  "क़": 3569,
  " बाइक": 3570,
  " प्रतियोगिता": 3571,
  " स्नाद्रगन": 3572,
  " खेला": 3573,
  " अनेक": 3574,
  "तलब": 3575,
  "्योति": 3576,
  " कमजोर": 3577,
  " तत्व": 3578,
  " कार्यकर्ताओं": 3579,
  " विल": 3580,
  "वारी": 3581,
  "ेंडर": 3582,
  " प्रभा": 3583,
  " रिट": 3584,
  " न्यूज": 3585,
  "धुनिक": 3586,
  " इंजीनियर": 3587,
  " शिक्षकों": 3588,
  " योजनाओं": 3589,
  " निवासी": 3590,
  "गढ़": 3591,
  " खिलौनों": 3592,
  " टैक्स": 3593,
  " चिकित्स": 3594,
  " उत्पादों": 3595,
  " जिलों": 3596,
  " दस्ता": 3597,
  " खिलौने": 3598,
  " फें": 3599,
  " कले": 3600,
  " छुट": 3601,
  "बै": 3602,
  " मानसिक": 3603,
  " वायरल": 3604,
  " )": 3605,
  " उतर": 3606,
  "वेयर": 3607,
  "ूषण": 3608,
  "बद्ध": 3609,
  "्डी": 3610,
  "शे": 3611,
  "ालत": 3612,
  " भो": 3613,
  "डिंग": 3614,
  " फॉर्म": 3615,
  " गाने": 3616,
  " दोष": 3617,
  " स्थानों": 3618,
  " देखें": 3619,
  " इंजन": 3620,
  " गृह": 3621,
  "ियत": 3622,
  " पदा": 3623,
  " ५००": 3624,
  " जिंदगी": 3625,
  "सेस": 3626,
  "गण": 3627,
  " जहाँ": 3628,
  " संबोधित": 3629,
  " निरी": 3630,
  " २०१४": 3631,
  " इच्छा": 3632,
  "ष्टाचार": 3633,
  "थर": 3634,
  " मैचों": 3635,
  " उल्लेख": 3636,
  " शांत": 3637,
  " साहित्य": 3638,
  "मती": 3639,
  " याचिका": 3640,
  " खि": 3641,
  " निर्वा": 3642,
  "विदा": 3643,
  " जैन": 3644,
  " घरेलू": 3645,
  "....": 3646,
  " अध्या": 3647,
  " ट्रै": 3648,
  "िटर": 3649,
  "म्मू": 3650,
  " फार्म": 3651,
  " मान्यता": 3652,
  " कड़ी": 3653,
  " पर्यावरण": 3654,
  " अपील": 3655,
  " कितनी": 3656,
  "मल": 3657,
  "यात": 3658,
  " आपूर्तिक": 3659,
  " ऑस्ट्रेलिया": 3660,
  "व्यवस्था": 3661,
  " आवास": 3662,
  " वार्ड": 3663,
  " रजिस्ट": 3664,
  " छत्तीस": 3665,
  "बारा": 3666,
  " मुद्दे": 3667,
  " गूगल": 3668,
  " मिस": 3669,
  " आपूर्तिकर्": 3670,
  " सम्प": 3671,
  " विवाह": 3672,
  " सेक": 3673,
  " धा": 3674,
  " ६०": 3675,
  " १९९": 3676,
  "कुछ": 3677,
  " सेटअप": 3678,
  " तैना": 3679,
  "रद": 3680,
  "्वे": 3681,
  " हाउस": 3682,
  " ३२": 3683,
  " अंतरराष्ट्रीय": 3684,
  "क्ल": 3685,
  " सेंटर": 3686,
  " कृष्ण": 3687,
  " करूँगा": 3688,
  " निप": 3689,
  " बिल्ली": 3690,
  " चीज": 3691,
  " कम्प": 3692,
  " सपा": 3693,
  " मर": 3694,
  " वहाँ": 3695,
  "आपको": 3696,
  "्कम": 3697,
  "नाक": 3698,
  " जेल": 3699,
  " झा": 3700,
  " क्वाल्कम": 3701,
  "ौन": 3702,
  " इंग्लैंड": 3703,
  "तीश": 3704,
  " मनु": 3705,
  " इंटरनेट": 3706,
  "सीय": 3707,
  " ब्रे": 3708,
  " गैस": 3709,
  " कंप्यूटर": 3710,
  " सर्वे": 3711,
  " आकर्षक": 3712,
  "ंडर": 3713,
  " संघर्ष": 3714,
  "लाइ": 3715,
  " महिलाएं": 3716,
  " सम्": 3717,
  "म्भ": 3718,
  " अत्य": 3719,
  " गुर": 3720,
  "कॉम": 3721,
  " आपूर्ति": 3722,
  "१६": 3723,
  " कोच": 3724,
  " हद": 3725,
  " शराब": 3726,
  " संकट": 3727,
  " थाना": 3728,
  "क्का": 3729,
  " मात्र": 3730,
  " कहता": 3731,
  " दिये": 3732,
  " लेनोवो": 3733,
  "ेंशन": 3734,
  "जान": 3735,
  "ांश": 3736,
  " सालों": 3737,
  " जुड़": 3738,
  " बेहत": 3739,
  " संचालन": 3740,
  " नेशनल": 3741,
  " प्रत्याशी": 3742,
  " कमे": 3743,
  "िंग्स": 3744,
  " दर्शन": 3745,
  "पुरी": 3746,
  " प्रारंभ": 3747,
  " तालाब": 3748,
  " वॉ": 3749,
  " सुझा": 3750,
  "िको": 3751,
  " डै": 3752,
  " दम": 3753,
  " धारा": 3754,
  " खाली": 3755,
  " उपचार": 3756,
  "फॉ": 3757,
  " सम्मेलन": 3758,
  " नती": 3759,
  "टका": 3760,
  "मह": 3761,
  " हां": 3762,
  "बाजों": 3763,
  "ीदा": 3764,
  "ोलॉ": 3765,
  " बहन": 3766,
  " तिथि": 3767,
  "जेंसी": 3768,
  "सबुक": 3769,
  " २९": 3770,
  " दीवार": 3771,
  " कृपया": 3772,
  " कितने": 3773,
  " अपडेट": 3774,
  " रेट": 3775,
  "लाल": 3776,
  " रास्ता": 3777,
  " अफ्री": 3778,
  " धोनी": 3779,
  " कारखाना": 3780,
  " हिलाया": 3781,
  "१७": 3782,
  " संय": 3783,
  "ंटर": 3784,
  "भुत": 3785,
  " मनाया": 3786,
  " समुदाय": 3787,
  "क्रो": 3788,
  " सुनवाई": 3789,
  " एप": 3790,
  " संबंधी": 3791,
  "एंगे": 3792,
  " न्याय": 3793,
  " म्": 3794,
  " भि": 3795,
  " सपना": 3796,
  " जागरूक": 3797,
  "ाले": 3798,
  "चीन": 3799,
  " इनकी": 3800,
  " सोने": 3801,
  " गंगा": 3802,
  " कार्यकर्ता": 3803,
  " लंबा": 3804,
  " बगीचे": 3805,
  " सेल्": 3806,
  " रणनी": 3807,
  "र्द": 3808,
  "साइ": 3809,
  " त्वचा": 3810,
  " बनाते": 3811,
  " स्ट्र": 3812,
  " वर्ल्ड": 3813,
  " डुअल": 3814,
  " संस्कृति": 3815,
  " फंड": 3816,
  " जिनके": 3817,
  " नियंत्रित": 3818,
  " थोड़ी": 3819,
  " आपूर्तिकर्ताओं": 3820,
  " पसंदीदा": 3821,
  "जिए": 3822,
  " घट": 3823,
  " दृष्टि": 3824,
  " रस": 3825,
  " बैंकों": 3826,
  " पार्": 3827,
  "संध": 3828,
  "कता": 3829,
  " सकेंगे": 3830,
  " तारीख": 3831,
  "ेप": 3832,
  " नौकर": 3833,
  " डायरे": 3834,
  " ऑटो": 3835,
  " बिल्कुल": 3836,
  " अभ्यास": 3837,
  " गईं": 3838,
  " अजय": 3839,
  " तकनीकी": 3840,
  " ट्रक": 3841,
  " नियमों": 3842,
  " बध": 3843,
  " आकर": 3844,
  " पावर": 3845,
  "न्य": 3846,
  " वर्मा": 3847,
  " प्रतिनिध": 3848,
  " झू": 3849,
  "सिंह": 3850,
  " खरीदने": 3851,
  " फो": 3852,
  "जिट": 3853,
  " बड़ा": 3854,
  " अद्": 3855,
  " कमेटी": 3856,
  " जिसने": 3857,
  "स्करण": 3858,
  " सीजन": 3859,
  " सेल": 3860,
  " घरों": 3861,
  " ट्रांस": 3862,
  " भ्रष्टाचार": 3863,
  "माँ": 3864,
  " भंड": 3865,
  " स्थल": 3866,
  " प्रसिद्ध": 3867,
  "हस": 3868,
  " गुजर": 3869,
  " शूटिंग": 3870,
  " भरी": 3871,
  " मजदूर": 3872,
  "विड": 3873,
  " सफेद": 3874,
  " एचडी": 3875,
  " प्रतिभा": 3876,
  "दारों": 3877,
  " दलों": 3878,
  " पत्रकार": 3879,
  " आगामी": 3880,
  " काउ": 3881,
  " भरोसा": 3882,
  " ज्योति": 3883,
  " सच्च": 3884,
  "िसाब": 3885,
  " फाइनल": 3886,
  "कुर": 3887,
  "टेक": 3888,
  "ंदन": 3889,
  "त्कार": 3890,
  " नेटवर्क": 3891,
  "पत": 3892,
  "्मी": 3893,
  " मास": 3894,
  " बाबा": 3895,
  " सुझाव": 3896,
  " बाय": 3897,
  " लोगो": 3898,
  " मंजू": 3899,
  "काता": 3900,
  " अखिलेश": 3901,
  " ग्ल": 3902,
  " चिप": 3903,
  "गंज": 3904,
  "कृतिक": 3905,
  " अकाउंट": 3906,
  "स्वा": 3907,
  " समझौ": 3908,
  " अदालत": 3909,
  "गरी": 3910,
  "एसटी": 3911,
  " मरी": 3912,
  " हफ्": 3913,
  " अद्भुत": 3914,
  " मित्र": 3915,
  " रोहित": 3916,
  "वहीं": 3917,
  " प्रोज": 3918,
  " कंट": 3919,
  "डि": 3920,
  " मेल": 3921,
  " ज्यादातर": 3922,
  " छात्रा": 3923,
  " फीचर": 3924,
  " लॉकडाउन": 3925,
  " एक्": 3926,
  "वेट": 3927,
  " केक": 3928,
  " बें": 3929,
  "नाम": 3930,
  " लिमिटेड": 3931,
  "िसू": 3932,
  " स्टेट": 3933,
  " इश": 3934,
  " हिसाब": 3935,
  "ुन": 3936,
  " पशु": 3937,
  "ठे": 3938,
  " लड़ा": 3939,
  " आरक्षण": 3940,
  " इंडियन": 3941,
  " यात्रियों": 3942,
  " बल्लेबाज": 3943,
  "िवारी": 3944,
  "ार्मिक": 3945,
  " वनडे": 3946,
  " कमाई": 3947,
  " डिवा": 3948,
  " अय": 3949,
  "बेन": 3950,
  " बेहतरीन": 3951,
  "संधान": 3952,
  " प्रौ": 3953,
  "िष्ट": 3954,
  " सका": 3955,
  " व्यक्तिगत": 3956,
  " तिवारी": 3957,
  " पढ़ने": 3958,
  " गठन": 3959,
  " ख़": 3960,
  " धूप": 3961,
  "लान": 3962,
  "देन": 3963,
  " जानवरों": 3964,
  " पेज": 3965,
  " आना": 3966,
  " चर": 3967,
  " इंस": 3968,
  " संविधान": 3969,
  " उल": 3970,
  " बीएस": 3971,
  "थोक": 3972,
  " उपभो": 3973,
  " हिन्द": 3974,
  "तल": 3975,
  " ग्रे": 3976,
  " टॉप": 3977,
  " हरी": 3978,
  " इका": 3979,
  " उज्ज": 3980,
  "द्दी": 3981,
  " मानना": 3982,
  " ७०": 3983,
  "वासियों": 3984,
  " ओपन": 3985,
  " चमकदार": 3986,
  " इंद": 3987,
  "म्न": 3988,
  " संवाद": 3989,
  " जीतने": 3990,
  "ुक्ति": 3991,
  "माने": 3992,
  " पाते": 3993,
  " बैठता": 3994,
  " मधु": 3995,
  " पृष्ठ": 3996,
  "जरीवाल": 3997,
  " रिस": 3998,
  " पैक": 3999,
  " प्रदर्श": 4000,
  " पश्चिम": 4001,
  " पर्": 4002,
  "िंगर": 4003,
  " प्रसार": 4004,
  " अंदा": 4005,
  " अधिकांश": 4006,
  " पुरानी": 4007,
  " मस्": 4008,
  "केशन": 4009,
  "गति": 4010,
  "ाइट": 4011,
  " वादा": 4012,
  " बनता": 4013,
  " आदित्य": 4014,
  "स्टिक": 4015,
  " संक्रमण": 4016,
  " डाउनलोड": 4017,
  " उत्पन्न": 4018,
  " आत": 4019,
  " अभ्य": 4020,
  "ोषण": 4021,
  "मुख्यमंत्री": 4022,
  " तस्वीरें": 4023,
  " अनुसंधान": 4024,
  " कॉन्": 4025,
  "घाटन": 4026,
  " फेसबुक": 4027,
  " घंट": 4028,
  " कब्": 4029,
  "ृत्ति": 4030,
  " अर्थव्यवस्था": 4031,
  "ंश": 4032,
  "८०": 4033,
  " हिमा": 4034,
  " रक्त": 4035,
  " मिश्रा": 4036,
  "ंतरिक": 4037,
  " नाराज": 4038,
  " दस्तावे": 4039,
  " मिशन": 4040,
  " बत": 4041,
  " बीते": 4042,
  " बधाई": 4043,
  "दरा": 4044,
  " हमला": 4045,
  " शाखा": 4046,
  "ल्ल": 4047,
  " अधिकतम": 4048,
  " अक्षय": 4049,
  " लगाई": 4050,
  " रैली": 4051,
  " शहरों": 4052,
  " लुक": 4053,
  "ृत्य": 4054,
  "िक्रिया": 4055,
  " खूबसूरत": 4056,
  " एका": 4057,
  " युद्ध": 4058,
  " तू": 4059,
  " कमल": 4060,
  " विधि": 4061,
  " विज्ञा": 4062,
  " सड़": 4063,
  "बंदी": 4064,
  " पेंट": 4065,
  " हफ्ते": 4066,
  " स्ला": 4067,
  "्ली": 4068,
  " धार्मिक": 4069,
  "्वल": 4070,
  " नोटिस": 4071,
  "ंकिंग": 4072,
  " निर्भर": 4073,
  " प्राकृतिक": 4074,
  " वैश्व": 4075,
  " विद्यार्थियों": 4076,
  "विक": 4077,
  " होम": 4078,
  " टू": 4079,
  " रेखा": 4080,
  "चु": 4081,
  "ंसर": 4082,
  " पेपर": 4083,
  " गतिविध": 4084,
  "२५": 4085,
  "ढ़ी": 4086,
  "ारीरिक": 4087,
  " आधुनिक": 4088,
  "लै": 4089,
  "मंद": 4090,
  "धीरे": 4091,
  "बत": 4092,
  ".,": 4093,
  " बंगाल": 4094,
  " परिसर": 4095,
  "इंट": 4096,
  " लगने": 4097,
  " व्यापक": 4098,
  " अशोक": 4099,
  " अंग्रेजी": 4100,
  " अजी": 4101,
  "ताव": 4102,
  " जानने": 4103,
  " बचाने": 4104,
  " गीत": 4105,
  "प्ट": 4106,
  "वाली": 4107,
  "मुंबई": 4108,
  " सत्य": 4109,
  " उड़ान": 4110,
  " जितना": 4111,
  " सरल": 4112,
  " खड़े": 4113,
  " जला": 4114,
  " विद": 4115,
  " गलती": 4116,
  "ारात्मक": 4117,
  " आंतरिक": 4118,
  "ोटी": 4119,
  "कुमार": 4120,
  " दिलच": 4121,
  " योग्यता": 4122,
  " दाय": 4123,
  " गाँव": 4124,
  " प्रौद्योगिक": 4125,
  "सील": 4126,
  " समाचार": 4127,
  "बाल": 4128,
  "एक्स": 4129,
  " पुत्र": 4130,
  "सच": 4131,
  "ोनिक": 4132,
  " डिजिटल": 4133,
  " प्रतिक्रिया": 4134,
  "दाबाद": 4135,
  "भारतीय": 4136,
  " इस्ती": 4137,
  " पृथ": 4138,
  " जम्मू": 4139,
  "्रत": 4140,
  " चट्ट": 4141,
  " बढ": 4142,
  " सां": 4143,
  " राव": 4144,
  "धारण": 4145,
  " चेक": 4146,
  " रनों": 4147,
  " चिंत": 4148,
  " एशिया": 4149,
  "ायल": 4150,
  " सूत्रों": 4151,
  " पात्र": 4152,
  " बढ़ने": 4153,
  " गर्मी": 4154,
  " ग्राहक": 4155,
  " 20": 4156,
  " बंध": 4157,
  " २०१५": 4158,
  " देखभाल": 4159,
  " संसद": 4160,
  " तट": 4161,
  " जंग": 4162,
  " पॉल": 4163,
  "रोज": 4164,
  " डिवाइस": 4165,
  "ूनी": 4166,
  " सिटी": 4167,
  " अग्रवाल": 4168,
  " खंड": 4169,
  "र्देश": 4170,
  " किनारे": 4171,
  "हसास": 4172,
  "रेन्द्र": 4173,
  " बदलने": 4174,
  "घु": 4175,
  " डो": 4176,
  " बैग": 4177,
  " सम्मानित": 4178,
  " केजरीवाल": 4179,
  " लीटर": 4180,
  "डल": 4181,
  " खर": 4182,
  " कहाँ": 4183,
  " गहरा": 4184,
  " फुट": 4185,
  "ालू": 4186,
  " खेद": 4187,
  " पांडे": 4188,
  " चौहान": 4189,
  " इंडस्ट्री": 4190,
  " आदर्श": 4191,
  " ग्रहण": 4192,
  " कराई": 4193,
  "ंखला": 4194,
  "सैम": 4195,
  " लोन": 4196,
  "्यूल": 4197,
  " घास": 4198,
  "कर्म": 4199,
  " आशा": 4200,
  " ठोस": 4201,
  " जिम्मेदार": 4202,
  " बातों": 4203,
  " बटन": 4204,
  " रेडमी": 4205,
  " फायदे": 4206,
  " अधिसू": 4207,
  " श्रृ": 4208,
  " वाहनों": 4209,
  " बीमा": 4210,
  " खतरा": 4211,
  " मंजूरी": 4212,
  "त्रि": 4213,
  "ायण": 4214,
  " फैंस": 4215,
  " ब्ला": 4216,
  "टाम": 4217,
  " हवाई": 4218,
  " रसो": 4219,
  " दयालु": 4220,
  "ोलॉजी": 4221,
  " सेक्टर": 4222,
  " दाख": 4223,
  " रवि": 4224,
  "जनों": 4225,
  " प्रतिबंध": 4226,
  "शोर": 4227,
  " वापसी": 4228,
  " ८०": 4229,
  " पटेल": 4230,
  "ताप": 4231,
  "ियस": 4232,
  " शारीरिक": 4233,
  "ोद": 4234,
  "ुति": 4235,
  "फिर": 4236,
  " झार": 4237,
  " छोड़": 4238,
  " मिट्टी": 4239,
  " फ्री": 4240,
  " सीटें": 4241,
  "बोर्ड": 4242,
  "लेस": 4243,
  " बरा": 4244,
  "नाटक": 4245,
  " क्रिया": 4246,
  " उपयोगकर्ता": 4247,
  " फेंक": 4248,
  "दिक": 4249,
  " गिल": 4250,
  " संरक्षण": 4251,
  " दान": 4252,
  " ऐप": 4253,
  " पोल": 4254,
  " एज": 4255,
  "ाये": 4256,
  " मूर्": 4257,
  "जैसे": 4258,
  " प्रोजेक्ट": 4259,
  " प्रस": 4260,
  " मेह": 4261,
  " बिता": 4262,
  " तीनों": 4263,
  "दायक": 4264,
  " अफ्रीका": 4265,
  "प्रिंट": 4266,
  " मल्टी": 4267,
  " नियुक्ति": 4268,
  " कहां": 4269,
  "ंकन": 4270,
  " उतार": 4271,
  " विद्युत": 4272,
  " टाइम": 4273,
  " विधाय": 4274,
  " कुत्ते": 4275,
  "प्शन": 4276,
  "दाताओं": 4277,
  " उन्": 4278,
  "रेट": 4279,
  "म्मद": 4280,
  " अभिन": 4281,
  " प्लस": 4282,
  "ैन": 4283,
  "दल": 4284,
  " विश्ले": 4285,
  "त्साह": 4286,
  "पो": 4287,
  " अनिल": 4288,
  " लगाते": 4289,
  "हाज": 4290,
  "ग्न": 4291,
  " खोला": 4292,
  " जमकर": 4293,
  "िफ": 4294,
  " पत": 4295,
  " मनी": 4296,
  "ितीय": 4297,
  " सकारात्मक": 4298,
  " नक": 4299,
  " ठाकुर": 4300,
  " इलाके": 4301,
  " नियुक्त": 4302,
  " लाइव": 4303,
  "ानि": 4304,
  " लगती": 4305,
  " टेली": 4306,
  " लौट": 4307,
  " एक्ट्रेस": 4308,
  " सेवाओं": 4309,
  " लुसी": 4310,
  " संभाल": 4311,
  "जर्स": 4312,
  "डियो": 4313,
  " स्टूड": 4314,
  "याब": 4315,
  " भरने": 4316,
  " उद्घाटन": 4317,
  "र्ज": 4318,
  " फैला": 4319,
  " विशिष्ट": 4320,
  " वैश्विक": 4321,
  "मतौर": 4322,
  "दियों": 4323,
  " लेंगे": 4324,
  " प्रकाशित": 4325,
  "नेशनल": 4326,
  " प्रगति": 4327,
  " प्रभावी": 4328,
  " शास": 4329,
  " वेस्ट": 4330,
  " मोड": 4331,
  " ब्रिट": 4332,
  " पढ़ाई": 4333,
  " आर्": 4334,
  "मेट": 4335,
  " संगठ": 4336,
  " सख": 4337,
  "वाला": 4338,
  " कर्ज": 4339,
  "कोर्ट": 4340,
  " बिस्तर": 4341,
  " ब्लॉग": 4342,
  " केस": 4343,
  "न्दर": 4344,
  " न्यूनतम": 4345,
  "न्नई": 4346,
  " अध्यक्षता": 4347,
  " देखे": 4348,
  "बादी": 4349,
  " ४००": 4350,
  " सेल्फी": 4351,
  " प्रोत्साह": 4352,
  " पदक": 4353,
  " पेशे": 4354,
  " आकर्षित": 4355,
  "४०": 4356,
  " विनि": 4357,
  " बुद्धि": 4358,
  " तकनीक": 4359,
  "ध्य": 4360,
  " रिल": 4361,
  "लिंग": 4362,
  " परिस्थित": 4363,
  "पात": 4364,
  " लगाना": 4365,
  "पीएस": 4366,
  " कार्यवाही": 4367,
  "पण": 4368,
  " हुवी": 4369,
  " डिप": 4370,
  " दर्शकों": 4371,
  "केज": 4372,
  " उत्सुक": 4373,
  " गेम": 4374,
  " अभिनेता": 4375,
  " रसोई": 4376,
  "रू": 4377,
  " छू": 4378,
  " चुनावों": 4379,
  "दर्भ": 4380,
  " भौ": 4381,
  "ड़की": 4382,
  " मजा": 4383,
  " कहने": 4384,
  " अवै": 4385,
  " अभ्यर्थ": 4386,
  " हथ": 4387,
  " बढ़ाया": 4388,
  " स्लाइड": 4389,
  " जानती": 4390,
  " तहसील": 4391,
  "पथ": 4392,
  "माग": 4393,
  " खतर": 4394,
  " लाइफ": 4395,
  " मरीजों": 4396,
  " होटल": 4397,
  " शब्दों": 4398,
  " रखता": 4399,
  " पाठ्यक्रम": 4400,
  " रूपये": 4401,
  " जुड़ी": 4402,
  "माल": 4403,
  " दीपक": 4404,
  " भालू": 4405,
  " विपक्ष": 4406,
  " मुकाबला": 4407,
  " तैनात": 4408,
  " चलना": 4409,
  "नहीं": 4410,
  " कश्मीर": 4411,
  " बैक": 4412,
  "्यूब": 4413,
  "ेन्द्र": 4414,
  " इलाकों": 4415,
  " स्पॉट": 4416,
  "्रमण": 4417,
  "२१": 4418,
  " खुले": 4419,
  " कुत्ता": 4420,
  "ज्": 4421,
  "रिए": 4422,
  " साव": 4423,
  " स्पी": 4424,
  " प्रौद्योगिकी": 4425,
  "िंगरप्रिंट": 4426,
  " दीपिका": 4427,
  " हँ": 4428,
  "ानु": 4429,
  " अगली": 4430,
  " ढूं": 4431,
  "टामिन": 4432,
  " मुंह": 4433,
  " नींद": 4434,
  "चलो": 4435,
  "तिहासिक": 4436,
  " नृत्य": 4437,
  " धार": 4438,
  " चुनावी": 4439,
  "लाम": 4440,
  "कीन": 4441,
  " माहौल": 4442,
  " ट्विटर": 4443,
  "फो": 4444,
  " प्रतिष्ठ": 4445,
  "रत": 4446,
  " ऐलान": 4447,
  " इनका": 4448,
  " कीमतों": 4449,
  " शिकार": 4450,
  " खेती": 4451,
  " जवान": 4452,
  " एजेंसी": 4453,
  " बर्फ": 4454,
  "हालांकि": 4455,
  "जुन": 4456,
  " युवक": 4457,
  " उपाध्यक्ष": 4458,
  "राय": 4459,
  " चैंप": 4460,
  " निर्वाचन": 4461,
  " पव": 4462,
  " मिलते": 4463,
  " रूम": 4464,
  " उत्तराखंड": 4465,
  " सिखा": 4466,
  " मानते": 4467,
  " संकल्प": 4468,
  "ाफ": 4469,
  " बांध": 4470,
  "पेट": 4471,
  "भूम": 4472,
  " ब्रह": 4473,
  " निरीक्षण": 4474,
  "२२": 4475,
  "बिल": 4476,
  "बॉल": 4477,
  "्राष्ट्रीय": 4478,
  "वट": 4479,
  " नाग": 4480,
  "६०": 4481,
  "भाष": 4482,
  " एंटी": 4483,
  " निम्न": 4484,
  " अजीब": 4485,
  " सन": 4486,
  "ुण": 4487,
  " सोना": 4488,
  "डीएम": 4489,
  " पीछा": 4490,
  " टिप्प": 4491,
  " खिलाड़ियों": 4492,
  "हिर": 4493,
  " दौरे": 4494,
  " सम्बन्ध": 4495,
  " माने": 4496,
  " आँख": 4497,
  " हटाने": 4498,
  "दर्शन": 4499,
  " अधिसूचना": 4500,
  " विधायकों": 4501,
  " खाता": 4502,
  " कटौती": 4503,
  " कोलकाता": 4504,
  "खिम": 4505,
  "ल्पना": 4506,
  " तंत्र": 4507,
  "ोध्या": 4508,
  " संस्करण": 4509,
  " बताने": 4510,
  " लक्षण": 4511,
  " कैंसर": 4512,
  " बल्लेबाजी": 4513,
  " अवैध": 4514,
  " ब्लैक": 4515,
  " रोमांच": 4516,
  "र्चे": 4517,
  " नीतीश": 4518,
  " मनुष्य": 4519,
  "वाने": 4520,
  " प्रोग्राम": 4521,
  " गुड़िया": 4522,
  "एगा": 4523,
  " किमी": 4524,
  " मेट": 4525,
  " मुख्यालय": 4526,
  " मध्यप्रदेश": 4527,
  " बिजनेस": 4528,
  "ोड": 4529,
  " अफसर": 4530,
  " ताकत": 4531,
  " कोड": 4532,
  " बुक": 4533,
  "याम": 4534,
  " कवर": 4535,
  "कॉ": 4536,
  " साक्षा": 4537,
  " प्रावधान": 4538,
  " अलविदा": 4539,
  "णे": 4540,
  " भक्त": 4541,
  " लगते": 4542,
  " ९०": 4543,
  " पाएंगे": 4544,
  "बिनेट": 4545,
  " आहार": 4546,
  " मुद्दों": 4547,
  " माया": 4548,
  " मांस": 4549,
  "एसपी": 4550,
  " जोखिम": 4551,
  "पूर": 4552,
  "िकाओं": 4553,
  " मिलाकर": 4554,
  " वीर": 4555,
  "दराबाद": 4556,
  " इस्": 4557,
  " साथी": 4558,
  " देखता": 4559,
  " जेन": 4560,
  "िनियम": 4561,
  " पर्यटन": 4562,
  "डीए": 4563,
  "इसलिए": 4564,
  " दिखाने": 4565,
  " डांस": 4566,
  "१४": 4567,
  " 3": 4568,
  " आजा": 4569,
  " संदर्भ": 4570,
  " व्याव": 4571,
  " जाओ": 4572,
  "वाले": 4573,
  "ेंट्स": 4574,
  " आएंगे": 4575,
  " |": 4576,
  "क्षर": 4577,
  " दै": 4578,
  " भीड़": 4579,
  " बच्चन": 4580,
  " तथ": 4581,
  " लेता": 4582,
  "पाद": 4583,
  "स्कृत": 4584,
  " भाग्य": 4585,
  " प्रेरित": 4586,
  " खड़ा": 4587,
  " डीजल": 4588,
  " चम": 4589,
  "दीय": 4590,
  "स्वी": 4591,
  "म्मत": 4592,
  " उपकरणों": 4593,
  " श्रृंखला": 4594,
  " रॉ": 4595,
  " रहीं": 4596,
  "वानी": 4597,
  " कोर्स": 4598,
  " गांवों": 4599,
  " स्रो": 4600,
  " विज्ञापन": 4601,
  "नास": 4602,
  "तावनी": 4603,
  " धूम": 4604,
  "ांकन": 4605,
  " सब्": 4606,
  "ईओ": 4607,
  " टन": 4608,
  " चक्र": 4609,
  "देख": 4610,
  " होंगी": 4611,
  " दिमाग": 4612,
  "अंत": 4613,
  " हनु": 4614,
  "जात": 4615,
  " दिक्": 4616,
  " काली": 4617,
  " तृ": 4618,
  " गिरा": 4619,
  " अतिथि": 4620,
  " पंड": 4621,
  " हस्ता": 4622,
  " ज़र": 4623,
  " मज़े": 4624,
  " लड़कियों": 4625,
  " भोपाल": 4626,
  "ंची": 4627,
  " आलो": 4628,
  " ढंग": 4629,
  " अभिनेत्री": 4630,
  "डु": 4631,
  " कस": 4632,
  " मुझ": 4633,
  " चलाने": 4634,
  " सुविधाओं": 4635,
  " आंखों": 4636,
  " आमतौर": 4637,
  "ेज": 4638,
  " संसाधन": 4639,
  "७०": 4640,
  "ैया": 4641,
  " असम": 4642,
  " चेतावनी": 4643,
  " मोटर": 4644,
  " पीने": 4645,
  " लव": 4646,
  " जोड़ी": 4647,
  "ेडियम": 4648,
  "टि": 4649,
  " नज": 4650,
  "ल्थ": 4651,
  " यानि": 4652,
  "ोसिए": 4653,
  " इंसान": 4654,
  " अर्था": 4655,
  " प्रदूषण": 4656,
  "सचिव": 4657,
  "षिक": 4658,
  "माही": 4659,
  "लोक": 4660,
  " विजे": 4661,
  " बुला": 4662,
  " सर्विस": 4663,
  " विटामिन": 4664,
  " रिया": 4665,
  " काले": 4666,
  " चार्जिंग": 4667,
  " अपराध": 4668,
  "न्हा": 4669,
  "ंकी": 4670,
  "व्यू": 4671,
  "क्ताओं": 4672,
  " निर्माता": 4673,
  "वास्तव": 4674,
  " औसत": 4675,
  "सलमान": 4676,
  " ब्याज": 4677,
  " कविता": 4678,
  " किरा": 4679,
  "ंत्रित": 4680,
  " जेट": 4681,
  " पिक": 4682,
  "तावरण": 4683,
  " प्रकृति": 4684,
  " चिल्लाया": 4685,
  " ढूंढ": 4686,
  " शुद्ध": 4687,
  " परिवहन": 4688,
  " वर्ण": 4689,
  " बिंद": 4690,
  " पृथ्वी": 4691,
  " संशोधन": 4692,
  " सिंध": 4693,
  "भाषा": 4694,
  " जॉन": 4695,
  " स्टेडियम": 4696,
  "ेस": 4697,
  "ुष": 4698,
  "्मण": 4699,
  "षेक": 4700,
  "ेंगी": 4701,
  "ेलर": 4702,
  "हूर": 4703,
  " व्यस्त": 4704,
  " बनना": 4705,
  "वर्ष": 4706,
  " नरेन्द्र": 4707,
  " चैंपियन": 4708,
  " निकाला": 4709,
  " संपत्ति": 4710,
  " वातावरण": 4711,
  " चाय": 4712,
  "ूटर": 4713,
  " फिल्में": 4714,
  " लाखों": 4715,
  " शह": 4716,
  "जिस": 4717,
  " खतरनाक": 4718,
  " कथ": 4719,
  " जीता": 4720,
  " डेस्क": 4721,
  " म्स्म": 4722,
  " कुर्": 4723,
  "रक": 4724,
  " देगी": 4725,
  "मार्": 4726,
  "राज्य": 4727,
  " रद्द": 4728,
  " कलेक्टर": 4729,
  "फान": 4730,
  " ताल": 4731,
  "टीन": 4732,
  "प्रधान": 4733,
  " मेगा": 4734,
  "्यूटी": 4735,
  "ठीक": 4736,
  " माल": 4737,
  "गीय": 4738,
  "ैक्ट": 4739,
  " बढ़ा": 4740,
  " विरोधी": 4741,
  " ऐतिहासिक": 4742,
  "िना": 4743,
  "गौर": 4744,
  " हाँ": 4745,
  " आशी": 4746,
  " रणनीति": 4747,
  "कई": 4748,
  "पूर्वक": 4749,
  " कपिल": 4750,
  " बालों": 4751,
  "्तिक": 4752,
  " पेय": 4753,
  " समझा": 4754,
  " आईपीएल": 4755,
  " शुरूआ": 4756,
  " तमिल": 4757,
  " रिसर्च": 4758,
  "फार": 4759,
  " सिक": 4760,
  " सिने": 4761,
  " भागी": 4762,
  " लाया": 4763,
  " सिक्": 4764,
  " रवाना": 4765,
  "ेगा": 4766,
  " लगाकर": 4767,
  "मेर": 4768,
  " बुरी": 4769,
  " स्वभाव": 4770,
  "पै": 4771,
  " वर": 4772,
  " रावत": 4773,
  "मेश्वर": 4774,
  "विश": 4775,
  " उठाने": 4776,
  " शिविर": 4777,
  "स्त्री": 4778,
  " नरम": 4779,
  " ३००": 4780,
  " स्नान": 4781,
  " हिंदू": 4782,
  "ियार": 4783,
  " वर्क": 4784,
  " दरवाजा": 4785,
  " टेक्न": 4786,
  " इंजीनियरिंग": 4787,
  "पक्ष": 4788,
  " बढ़कर": 4789,
  " हजारों": 4790,
  " संतुल": 4791,
  " अकेले": 4792,
  " व्रत": 4793,
  "नेश": 4794,
  " सराह": 4795,
  " दोबारा": 4796,
  "काने": 4797,
  " संचार": 4798,
  "बीएस": 4799,
  " शेर": 4800,
  "गांव": 4801,
  " आनंद": 4802,
  " मॉ": 4803,
  " ध्व": 4804,
  " बचने": 4805,
  " जाम": 4806,
  "ंपरा": 4807,
  " एक्सप्रेस": 4808,
  "रीत": 4809,
  " आएगा": 4810,
  " डाला": 4811,
  " रिजल्ट": 4812,
  "फिकेशन": 4813,
  " फैल": 4814,
  "िश्वास": 4815,
  " कार्यक्रमों": 4816,
  " ढा": 4817,
  "इससे": 4818,
  " प्रेस": 4819,
  " संस्थानों": 4820,
  " खोलने": 4821,
  " आखिरकार": 4822,
  " सेंट": 4823,
  " महीनों": 4824,
  " खुलासा": 4825,
  " त्रि": 4826,
  " विस्तृत": 4827,
  "कां": 4828,
  " शेष": 4829,
  " चालू": 4830,
  " वस्तु": 4831,
  " ड्राइव": 4832,
  " कर्नाटक": 4833,
  " हालत": 4834,
  " कंट्रोल": 4835,
  " राज्यपाल": 4836,
  "अचानक": 4837,
  "उत्तर": 4838,
  " परा": 4839,
  " गेट": 4840,
  " तैर": 4841,
  " पटना": 4842,
  " बढ़ावा": 4843,
  " बराबर": 4844,
  "्यांकन": 4845,
  " रिक्त": 4846,
  " साक्षात्कार": 4847,
  " स्थिर": 4848,
  " अल्प": 4849,
  " वर्षीय": 4850,
  " ग्रामीणों": 4851,
  " हाइ": 4852,
  " जानी": 4853,
  " रानी": 4854,
  " कहान": 4855,
  "पट": 4856,
  " लीला": 4857,
  "न्द्रीय": 4858,
  " रॉय": 4859,
  " जयपुर": 4860,
  " टुकड़ा": 4861,
  "भूमि": 4862,
  " मचा": 4863,
  " निकलने": 4864,
  "अर": 4865,
  "रणा": 4866,
  "धीश": 4867,
  " पिक्": 4868,
  " सुनील": 4869,
  " पहुँच": 4870,
  " पेशेवर": 4871,
  " दास": 4872,
  "वियों": 4873,
  " चेन्नई": 4874,
  " आभ": 4875,
  " समर्": 4876,
  " हुये": 4877,
  "मीडिया": 4878,
  " गतिविधियों": 4879,
  " भरे": 4880,
  " बनाये": 4881,
  " प्रमो": 4882,
  "ोतरी": 4883,
  " प्रवक्ता": 4884,
  "फॉर्म": 4885,
  " बॉब": 4886,
  " सौं": 4887,
  " चोप": 4888,
  " मरीज": 4889,
  "उप": 4890,
  "स्य": 4891,
  " मुह": 4892,
  " १९८": 4893,
  " चैनल": 4894,
  " सपने": 4895,
  " झारखंड": 4896,
  " निच": 4897,
  " बढ़ती": 4898,
  " उपस्थिति": 4899,
  "ंथ": 4900,
  " राजस्व": 4901,
  " फ्लै": 4902,
  "श्चा": 4903,
  " नाव": 4904,
  " आत्मा": 4905,
  " अट": 4906,
  " कथा": 4907,
  "र्डर": 4908,
  " मशहूर": 4909,
  " गोल्ड": 4910,
  " हिमाचल": 4911,
  "गाह": 4912,
  "बारी": 4913,
  "शाह": 4914,
  "ंग्ला": 4915,
  "खण्ड": 4916,
  " यात्री": 4917,
  " कोरिया": 4918,
  " वायु": 4919,
  "कस": 4920,
  " चंद": 4921,
  "ढ़े": 4922,
  "ेयर": 4923,
  " आबादी": 4924,
  " परन्तु": 4925,
  " कैबिनेट": 4926,
  " विवे": 4927,
  "मम्मी": 4928,
  "दिल्ली": 4929,
  " चेयर": 4930,
  " पड़े": 4931,
  " विपरीत": 4932,
  "दू": 4933,
  "।।": 4934,
  " बग": 4935,
  " क्यू": 4936,
  " टूर्": 4937,
  " कल्पना": 4938,
  " सैनिक": 4939,
  " पत्थर": 4940,
  " अंब": 4941,
  " ईमान": 4942,
  " क्लब": 4943,
  " हनुमान": 4944,
  " मैन": 4945,
  " ३३": 4946,
  " विषयों": 4947,
  "धिकारियों": 4948,
  " हालात": 4949,
  " दिलचस्प": 4950,
  " नये": 4951,
  "कामना": 4952,
  " सड़": 4953,
  " बेल": 4954,
  " लेखक": 4955,
  " लेन": 4956,
  "िताभ": 4957,
  "रियर": 4958,
  " परंपरा": 4959,
  " विभागों": 4960,
  " पुष्टि": 4961,
  " नागरिकों": 4962,
  " शुरु": 4963,
  "लन": 4964,
  " सृ": 4965,
  " अमर": 4966,
  "लखनऊ": 4967,
  " स्वरूप": 4968,
  "िकोण": 4969,
  "सारा": 4970,
  "म्मच": 4971,
  " जियो": 4972,
  " सफर": 4973,
  " स्पेश": 4974,
  " अनुकूलित": 4975,
  "गरानी": 4976,
  " स्वाद": 4977,
  "ार्थी": 4978,
  " मांगी": 4979,
  " लिखित": 4980,
  " करवाया": 4981,
  " अयोध्या": 4982,
  "मौ": 4983,
  " अक": 4984,
  " इंट": 4985,
  " गणेश": 4986,
  " मतदाता": 4987,
  " चिंतित": 4988,
  " पैकेज": 4989,
  " अधिनियम": 4990,
  " एग्": 4991,
  " जताई": 4992,
  " एसोसिए": 4993,
  " परमेश्वर": 4994,
  "इसी": 4995,
  " घोट": 4996,
  " निशा": 4997,
  " गाना": 4998,
  " अनुसू": 4999,
  "चर्स": 5000,
  "ीकरण": 5001,
  " संरचना": 5002,
  "छोटी": 5003,
  "स्को": 5004,
  "ब्लिक": 5005,
  " महाराज": 5006,
  " जनरल": 5007,
  "बरा": 5008,
  " लेती": 5009,
  "वर्ड": 5010,
  " स्टाइल": 5011,
  "हराया": 5012,
  " अंधे": 5013,
  " जनपद": 5014,
  " चम्मच": 5015,
  " कं": 5016,
  " सिव": 5017,
  " लीग": 5018,
  " इस्तीफा": 5019,
  " हाईकोर्ट": 5020,
  " समृ": 5021,
  " राजेश": 5022,
  " कार्ब": 5023,
  " छिपा": 5024,
  " सिफार": 5025,
  " निगरानी": 5026,
  " आपसे": 5027,
  "ग्रा": 5028,
  "नामेंट": 5029,
  " सहमति": 5030,
  " नामांकन": 5031,
  " मुक": 5032,
  " झील": 5033,
  " शौच": 5034,
  "१३": 5035,
  " पड़ी": 5036,
  " बसपा": 5037,
  " सीमित": 5038,
  " चेहरा": 5039,
  " शहरी": 5040,
  " औद्योगिक": 5041,
  "पिछ": 5042,
  " दशक": 5043,
  " मोहम्मद": 5044,
  "हीन": 5045,
  "ॉनिक": 5046,
  "िक्सल": 5047,
  " इंस्टा": 5048,
  " श्रीमती": 5049,
  "यक": 5050,
  " सेब": 5051,
  " आयुक्त": 5052,
  " सिफारिश": 5053,
  " समस्त": 5054,
  " ६४": 5055,
  "सेंस": 5056,
  " श्रमिक": 5057,
  " क्षेत्रीय": 5058,
  "नांतर": 5059,
  " बुलाया": 5060,
  "हारी": 5061,
  " ट्रंप": 5062,
  " मजबूर": 5063,
  " दौरा": 5064,
  "रोध": 5065,
  " ४८": 5066,
  "ंसी": 5067,
  " डालकर": 5068,
  " राजीव": 5069,
  " ऑफर": 5070,
  " स्की": 5071,
  "ष्म": 5072,
  " राशन": 5073,
  " जन्मदिन": 5074,
  " अंतर्राष्ट्रीय": 5075,
  " तिमाही": 5076,
  "--": 5077,
  "दास": 5078,
  " एक्टर": 5079,
  " पड़ेगा": 5080,
  "घ्र": 5081,
  "सनीय": 5082,
  " सड़क": 5083,
  " प्रेरणा": 5084,
  "ंगन": 5085,
  " अमी": 5086,
  " हार्": 5087,
  " उन्न": 5088,
  "भाग्य": 5089,
  " दलित": 5090,
  " जोशी": 5091,
  " बॉस": 5092,
  " निधन": 5093,
  " ठंडा": 5094,
  "नन": 5095,
  " सिया": 5096,
  " शर्म": 5097,
  " समझने": 5098,
  " परंतु": 5099,
  " आतंक": 5100,
  "लक": 5101,
  " माफ": 5102,
  " पीड़": 5103,
  " पौध": 5104,
  " जिलाधिकारी": 5105,
  " निशाने": 5106,
  " विंड": 5107,
  " विचारों": 5108,
  " नज़र": 5109,
  " पेंशन": 5110,
  "चय": 5111,
  ".\"": 5112,
  " सेहत": 5113,
  " तारीफ": 5114,
  " रूस": 5115,
  "प्रत": 5116,
  " उतना": 5117,
  " स्टाफ": 5118,
  " आँखें": 5119,
  " पाता": 5120,
  "ोटे": 5121,
  "्ठा": 5122,
  " पोर्टल": 5123,
  "ड्र": 5124,
  "शनी": 5125,
  " इसको": 5126,
  " ३६": 5127,
  " आवंट": 5128,
  "ष्णु": 5129,
  " समाजवादी": 5130,
  "रिएंट": 5131,
  " गड़": 5132,
  " सदन": 5133,
  " बदले": 5134,
  " प्रताप": 5135,
  " क्रे": 5136,
  " सर्वा": 5137,
  " मुफ्त": 5138,
  " एहसास": 5139,
  " मेट्रो": 5140,
  " हैदराबाद": 5141,
  "विच": 5142,
  " परिवारों": 5143,
  " दिग्": 5144,
  " अर्जुन": 5145,
  " मोर्चे": 5146,
  "उथ": 5147,
  "५५": 5148,
  " यो": 5149,
  " नवा": 5150,
  "ूली": 5151,
  " महल": 5152,
  " एंट": 5153,
  " प्रशास": 5154,
  "उसकी": 5155,
  " सब्ज": 5156,
  "कारात्मक": 5157,
  " टूर्नामेंट": 5158,
  "िब": 5159,
  " उक्त": 5160,
  " हेड": 5161,
  " मनोज": 5162,
  "घटना": 5163,
  " जायेगी": 5164,
  " प्रिंट": 5165,
  " आह": 5166,
  " सेमी": 5167,
  "ेबल": 5168,
  " शुरुआती": 5169,
  "ट्टा": 5170,
  " प्राथमिकता": 5171,
  " प्रदर्शित": 5172,
  " विश्लेषण": 5173,
  "ड़ों": 5174,
  " अस्थ": 5175,
  " नर्स": 5176,
  " ठे": 5177,
  "कियां": 5178,
  "पुरा": 5179,
  " छत्तीसगढ़": 5180,
  " राज्यसभा": 5181,
  " चतु": 5182,
  " केंद्रित": 5183,
  " दृष्ट": 5184,
  " इंटरव्यू": 5185,
  " जाल": 5186,
  " वकी": 5187,
  " उद्यम": 5188,
  " बचाव": 5189,
  " करवाने": 5190,
  "जीलैंड": 5191,
  " मूल्यांकन": 5192,
  " .": 5193,
  " सश": 5194,
  "गेट": 5195,
  " हस्त": 5196,
  " पिछली": 5197,
  " डाक": 5198,
  " स्टॉक": 5199,
  " छोड़कर": 5200,
  " प्रीम": 5201,
  " जाहिर": 5202,
  "कांग्रेस": 5203,
  " गेंदों": 5204,
  " जीएसटी": 5205,
  " लीड": 5206,
  "ब्ल्यू": 5207,
  " प्रोडक्ट": 5208,
  "आइ": 5209,
  "टिल": 5210,
  " भारती": 5211,
  " फूलों": 5212,
  " स्टील": 5213,
  "ंग्लादेश": 5214,
  " बाग": 5215,
  " देखो": 5216,
  "उसने": 5217,
  " प्रतिनिधि": 5218,
  " धवन": 5219,
  " गायब": 5220,
  " चट्टान": 5221,
  "!!": 5222,
  " काला": 5223,
  " लड़ाई": 5224,
  "र्देशों": 5225,
  " हृ": 5226,
  "धारा": 5227,
  " लगेगा": 5228,
  " अज": 5229,
  "गोश": 5230,
  "िकी": 5231,
  " हरि": 5232,
  " २०१३": 5233,
  " सहमत": 5234,
  " सकेगा": 5235,
  " टोपी": 5236,
  " तित": 5237,
  "ब्स": 5238,
  " उपयोगी": 5239,
  " स्टैंड": 5240,
  " उपयुक्त": 5241,
  " उन्होने": 5242,
  " सागर": 5243,
  "ुलर": 5244,
  " खेत": 5245,
  " डीएम": 5246,
  "जिद": 5247,
  " सब्जी": 5248,
  " सन्": 5249,
  "धिकरण": 5250,
  " यूनिट": 5251,
  " ब्रेक": 5252,
  " भंडारण": 5253,
  " उज्ज्वल": 5254,
  " कार्तिक": 5255,
  " केन्द्रीय": 5256,
  "):": 5257,
  " डाटा": 5258,
  " कार्यकाल": 5259,
  "एफसी": 5260,
  " गेह": 5261,
  "ेश्वर": 5262,
  " +": 5263,
  " खत": 5264,
  " अवश्य": 5265,
  " आदित्यनाथ": 5266,
  "नम": 5267,
  " पहुंचाने": 5268,
  " जगत": 5269,
  " प्राचीन": 5270,
  "कश": 5271,
  "वक": 5272,
  " तिल": 5273,
  " शही": 5274,
  " फास्ट": 5275,
  " चोरी": 5276,
  " स्पेशल": 5277,
  "लीय": 5278,
  " आइस": 5279,
  "ाइलों": 5280,
  "यें": 5281,
  " बढ़त": 5282,
  "िमा": 5283,
  "एसएस": 5284,
  " जरुर": 5285,
  " सैक": 5286,
  " एसिड": 5287,
  " रिजर्व": 5288,
  " शपथ": 5289,
  " टिप्पणी": 5290,
  "टों": 5291,
  " महज": 5292,
  " सौंप": 5293,
  " व्हा": 5294,
  " कां": 5295,
  "दरअसल": 5296,
  " शुरूआत": 5297,
  " सिनेमा": 5298,
  " दरवाजे": 5299,
  " स्वतंत्रता": 5300,
  " जानना": 5301,
  "शाक": 5302,
  " दादी": 5303,
  "हाबाद": 5304,
  " छेद": 5305,
  " विजेता": 5306,
  " आमंत्रित": 5307,
  "ंडीज": 5308,
  "६७": 5309,
  " गोर": 5310,
  " पुरुषों": 5311,
  " कनेक्शन": 5312,
  "ओसी": 5313,
  "स्वर": 5314,
  " माय": 5315,
  " गुला": 5316,
  " सॉफ्ट": 5317,
  " छवि": 5318,
  " रंगों": 5319,
  " बाहरी": 5320,
  " प्लास्टिक": 5321,
  "बस": 5322,
  "यां": 5323,
  "वों": 5324,
  " दावे": 5325,
  " इकाई": 5326,
  "्रेशन": 5327,
  " अन्त": 5328,
  " फर्": 5329,
  "फार्म": 5330,
  " फॉर": 5331,
  " निरंतर": 5332,
  "डो": 5333,
  " नु": 5334,
  " फु": 5335,
  "मात्र": 5336,
  " ओम": 5337,
  "कृष्ट": 5338,
  " नारायण": 5339,
  " अमिताभ": 5340,
  "ॉस": 5341,
  "रियल": 5342,
  "िथ": 5343,
  "इंड": 5344,
  " चाहिये": 5345,
  " प्राइवेट": 5346,
  "गौरतलब": 5347,
  " गह": 5348,
  "जिन": 5349,
  " सुल": 5350,
  " लापर": 5351,
  " थाने": 5352,
  " खेलों": 5353,
  "ार्थना": 5354,
  " डेब": 5355,
  " मुस्कान": 5356,
  "ड्डा": 5357,
  " अरविंद": 5358,
  "तें": 5359,
  " आएगी": 5360,
  " नमक": 5361,
  " प्राप्ति": 5362,
  "ंसिल": 5363,
  " झु": 5364,
  " सेंसर": 5365,
  " पुराना": 5366,
  " इधर": 5367,
  "इयों": 5368,
  " पदाधिकारी": 5369,
  " सबक": 5370,
  " लम्": 5371,
  " सपोर्ट": 5372,
  "ड्डी": 5373,
  " कामयाब": 5374,
  " टेक्नोलॉजी": 5375,
  "्क": 5376,
  " अन्": 5377,
  "ंचल": 5378,
  " साझे": 5379,
  "्रेडिट": 5380,
  " दिक्कत": 5381,
  " पोशाक": 5382,
  "तू": 5383,
  " क़": 5384,
  " भय": 5385,
  "िशु": 5386,
  " शनि": 5387,
  " गाड़ी": 5388,
  " आवेद": 5389,
  " अंडर": 5390,
  " दैनिक": 5391,
  "अग": 5392,
  "मिन": 5393,
  "परी": 5394,
  " सकी": 5395,
  " पूछता": 5396,
  "फ्टी": 5397,
  " माइक्रो": 5398,
  " मजाक": 5399,
  "ेह": 5400,
  " डरा": 5401,
  " फर्श": 5402,
  "क्के": 5403,
  " युग": 5404,
  " कलर": 5405,
  " शिवसेना": 5406,
  " यूजर्स": 5407,
  " व्यक्तियों": 5408,
  "दृ": 5409,
  " असली": 5410,
  " जुड़ा": 5411,
  " चिकनी": 5412,
  " इकट": 5413,
  " तीसरी": 5414,
  " मेडिया": 5415,
  " बोला": 5416,
  " मिलियन": 5417,
  " शतक": 5418,
  " डैडी": 5419,
  " करण": 5420,
  " इम": 5421,
  " दाल": 5422,
  " सावधानी": 5423,
  "वली": 5424,
  "फ्रेंस": 5425,
  "८९": 5426,
  "ोंग": 5427,
  "ाइप": 5428,
  "िमी": 5429,
  " जगहों": 5430,
  "कालीन": 5431,
  " धातु": 5432,
  " आलोचना": 5433,
  " महासचिव": 5434,
  " मेडियाटेक": 5435,
  " भोज": 5436,
  " चौक": 5437,
  " मंज": 5438,
  " संगठनों": 5439,
  " चोपड़ा": 5440,
  " इंस्टाग्राम": 5441,
  " नकारात्मक": 5442,
  "गब": 5443,
  "गें": 5444,
  " द्र": 5445,
  " बारी": 5446,
  " देखती": 5447,
  " मकान": 5448,
  " सतह": 5449,
  " नैतिक": 5450,
  " विद्या": 5451,
  " तार": 5452,
  "नीर": 5453,
  " वार्ता": 5454,
  "विश्वास": 5455,
  "क्षणिक": 5456,
  " अहमद": 5457,
  " गुस्से": 5458,
  "क्षेप": 5459,
  " सिन्हा": 5460,
  " गर": 5461,
  "ायंस": 5462,
  " आधा": 5463,
  " पैरों": 5464,
  " पंजीकरण": 5465,
  " अपेक्षाकृत": 5466,
  " प्रार्थना": 5467,
  " छु": 5468,
  "ाराण": 5469,
  " खिता": 5470,
  "कृष्ण": 5471,
  " ग्लो": 5472,
  " हरे": 5473,
  "प्रे": 5474,
  " नाटक": 5475,
  " कानूनी": 5476,
  " पाउ": 5477,
  " सेवाएं": 5478,
  " निकालने": 5479,
  " मैनेज": 5480,
  " चू": 5481,
  "िरा": 5482,
  " मेक": 5483,
  " म्यू": 5484,
  " गोद": 5485,
  " कंपनियां": 5486,
  " जितनी": 5487,
  " हैरान": 5488,
  " बेरोज": 5489,
  " इंटरनेशनल": 5490,
  "ाराणसी": 5491,
  " इजा": 5492,
  "चारिक": 5493,
  " दुख": 5494,
  "क्टा": 5495,
  " हिस्सों": 5496,
  " विधेय": 5497,
  " डायरेक्टर": 5498,
  " प्रसन्न": 5499,
  " ड्रेस": 5500,
  " स्वर्ण": 5501,
  " चावल": 5502,
  " अनुरूप": 5503,
  "रीय": 5504,
  " अनुश": 5505,
  " आईटी": 5506,
  " ७५": 5507,
  " प्रोफ": 5508,
  " डालने": 5509,
  "000": 5510,
  " एंड्र": 5511,
  " मुद्दा": 5512,
  " बीमारियों": 5513,
  " अनाज": 5514,
  " तल": 5515,
  "पेश": 5516,
  " मोड़": 5517,
  " बनकर": 5518,
  " जूते": 5519,
  " अनुरोध": 5520,
  "रिय": 5521,
  " प्रतिमा": 5522,
  "न्यू": 5523,
  "चरण": 5524,
  " आयात": 5525,
  " पॉप": 5526,
  " शैली": 5527,
  " श्रद्धाल": 5528,
  " निशाना": 5529,
  " कारों": 5530,
  " ब्लू": 5531,
  " गेहूं": 5532,
  "बहु": 5533,
  "ल्फ": 5534,
  "जिला": 5535,
  " बेस्ट": 5536,
  " पर्स": 5537,
  " उपहार": 5538,
  " लाइट": 5539,
  " मुलायम": 5540,
  "फाई": 5541,
  " रियर": 5542,
  "न्यास": 5543,
  " प्रतिदिन": 5544,
  " स्वच्छता": 5545,
  " पवित्र": 5546,
  " भरपूर": 5547,
  " बौ": 5548,
  " लक": 5549,
  "कंप": 5550,
  " फायर": 5551,
  " बचपन": 5552,
  " संतोष": 5553,
  " श्रीवास्तव": 5554,
  "क्ला": 5555,
  " दोस्ती": 5556,
  "धन्यवाद": 5557,
  "ॉयड": 5558,
  "शुल्क": 5559,
  " संसदीय": 5560,
  "पल": 5561,
  "एससी": 5562,
  " भट्ट": 5563,
  " बांग्लादेश": 5564,
  "वृ": 5565,
  " पथ": 5566,
  " उसको": 5567,
  "जाति": 5568,
  "लिख": 5569,
  "फिल्म": 5570,
  "भाजपा": 5571,
  " शिवराज": 5572,
  " शीघ्र": 5573,
  " हृदय": 5574,
  "ज़र": 5575,
  " बुल": 5576,
  " ऑफ़": 5577,
  " सुनने": 5578,
  " एसोसिएशन": 5579,
  " उत्कृष्ट": 5580,
  " पार्टनर": 5581,
  " जापान": 5582,
  " जबरद": 5583,
  " राह": 5584,
  "ढ़ा": 5585,
  "िप्ट": 5586,
  " बुनिया": 5587,
  " घंटों": 5588,
  " न्यूजीलैंड": 5589,
  "पह": 5590,
  "राग": 5591,
  " क्षमा": 5592,
  " ताजा": 5593,
  " प्याज": 5594,
  "प्रधानमंत्री": 5595,
  " गुना": 5596,
  " जरिये": 5597,
  " पूछे": 5598,
  " लैड": 5599,
  " उल्ल": 5600,
  " ख्या": 5601,
  " द्वार": 5602,
  " बंदर": 5603,
  " मोर्चा": 5604,
  "अन्ना": 5605,
  " स्रोत": 5606,
  " स्थानांतर": 5607,
  "सव": 5608,
  " छे": 5609,
  "साई": 5610,
  " निकाय": 5611,
  "वेंट": 5612,
  " अंकों": 5613,
  " पौधे": 5614,
  " निराश": 5615,
  " कीमतें": 5616,
  " सर्वो": 5617,
  " खासकर": 5618,
  "गमन": 5619,
  " नवीनतम": 5620,
  " मायावती": 5621,
  " रखती": 5622,
  " रणवीर": 5623,
  " गुरू": 5624,
  " पेशकश": 5625,
  " करार": 5626,
  " छत": 5627,
  " लड़ने": 5628,
  " गहरी": 5629,
  "ारंटी": 5630,
  " लक्ष्मी": 5631,
  " प्राधिकरण": 5632,
  "३५": 5633,
  "काया": 5634,
  " हेल": 5635,
  "आईटी": 5636,
  " भाषण": 5637,
  " शंकर": 5638,
  " किशोर": 5639,
  " क्रेडिट": 5640,
  "ंचाई": 5641,
  " पैट": 5642,
  " महामारी": 5643,
  " स्तरी": 5644,
  " नोटबंदी": 5645,
  " अदा": 5646,
  " महत्": 5647,
  " ग्रीन": 5648,
  " प्रशंसा": 5649,
  " सौर": 5650,
  " कैंप": 5651,
  " नाथ": 5652,
  " टेबल": 5653,
  " दृष्टिकोण": 5654,
  " गंदगी": 5655,
  " मास्टर": 5656,
  "चुनाव": 5657,
  "\"।": 5658,
  "साम": 5659,
  " चुनें": 5660,
  " सीखने": 5661,
  " रोटी": 5662,
  " जिनका": 5663,
  " तथ्य": 5664,
  " पीड़ित": 5665,
  " $": 5666,
  " समक्ष": 5667,
  " ३४": 5668,
  " निकट": 5669,
  "वासन": 5670,
  "ित्त": 5671,
  " खेली": 5672,
  " लोकतंत्र": 5673,
  " दिवसीय": 5674,
  " व्यायाम": 5675,
  "इंग": 5676,
  " मानी": 5677,
  "ोटा": 5678,
  " दर्शा": 5679,
  "भूत": 5680,
  "मोहन": 5681,
  " इलेक्ट्रॉनिक": 5682,
  " फ़ाइलों": 5683,
  "।'": 5684,
  " उछ": 5685,
  " त्या": 5686,
  " कराए": 5687,
  " आशंका": 5688,
  " कन्या": 5689,
  "ंघन": 5690,
  " अनुसूचित": 5691,
  "ुरी": 5692,
  " लहर": 5693,
  " व्यापारी": 5694,
  " अंतरिक्ष": 5695,
  " अखबार": 5696,
  "गणना": 5697,
  " विधेयक": 5698,
  "त्न": 5699,
  "क्चर": 5700,
  "फेसर": 5701,
  "आउट": 5702,
  " स्नै": 5703,
  " कागज": 5704,
  " माफी": 5705,
  " कारणों": 5706,
  " सीधा": 5707,
  " पश्चा": 5708,
  " जस्ट": 5709,
  "ोकस": 5710,
  " नीला": 5711,
  " पक्षियों": 5712,
  " न्यायाधीश": 5713,
  " स्तरीय": 5714,
  "७५": 5715,
  " अधी": 5716,
  " हॉट": 5717,
  "संदेह": 5718,
  " एव": 5719,
  " धम": 5720,
  " चौथे": 5721,
  " इक": 5722,
  " रूपए": 5723,
  " महेंद्र": 5724,
  " साहब": 5725,
  " अकेला": 5726,
  " सोनिया": 5727,
  " वस्तुओं": 5728,
  " ईश्वर": 5729,
  " पदार्थों": 5730,
  " हिन्दू": 5731,
  " सख्त": 5732,
  "नासोनिक": 5733,
  "िद": 5734,
  " ममता": 5735,
  " अंदाज": 5736,
  " थक": 5737,
  " फ्ला": 5738,
  " मंडी": 5739,
  "रुख": 5740,
  " हिंसा": 5741,
  " ३५००": 5742,
  "बॉलीवुड": 5743,
  " मजदूरों": 5744,
  " शौचालय": 5745,
  " रोशनी": 5746,
  "मण": 5747,
  "सेट": 5748,
  " कैसा": 5749,
  " ट्रैक": 5750,
  " ढेर": 5751,
  " पूंजी": 5752,
  " निर्यात": 5753,
  " बहुमत": 5754,
  " तर्क": 5755,
  " सड़कों": 5756,
  " नष्ट": 5757,
  "मूल": 5758,
  " टीमों": 5759,
  " बोली": 5760,
  "िमंडल": 5761,
  " परियोजनाओं": 5762,
  " इच्छुक": 5763,
  " घायल": 5764,
  "्याम": 5765,
  "स्टार": 5766,
  " रुख": 5767,
  "पिछले": 5768,
  "णु": 5769,
  " अस्त": 5770,
  " सवार": 5771,
  " फैशन": 5772,
  " मनोर": 5773,
  " ट्रेड": 5774,
  " साहसिक": 5775,
  " टाइप": 5776,
  " लिव": 5777,
  " बताई": 5778,
  " बाधा": 5779,
  " निर्मित": 5780,
  " पोस्टर": 5781,
  " बादल": 5782,
  " हिट": 5783,
  " खाया": 5784,
  " पुष्": 5785,
  " मोहन": 5786,
  " इसीलिए": 5787,
  " लालू": 5788,
  " निकलना": 5789,
  " जाएंगी": 5790,
  "तना": 5791,
  "स्पी": 5792,
  " कमेंट": 5793,
  " पहाड़ी": 5794,
  " शैक्षणिक": 5795,
  " जोन": 5796,
  " फोट": 5797,
  "ँचा": 5798,
  " पत्रकारों": 5799,
  " पड़ता": 5800,
  " राकेश": 5801,
  " मूर्ख": 5802,
  "रेज": 5803,
  " बढ़ते": 5804,
  "लाइट": 5805,
  " विविध": 5806,
  " पैमाने": 5807,
  " हस्ताक्षर": 5808,
  " मुकद": 5809,
  " दुर्घटना": 5810,
  "िग": 5811,
  " खार": 5812,
  " श्रम": 5813,
  " ज्ञा": 5814,
  "इल": 5815,
  "व्": 5816,
  " यश": 5817,
  " निस्": 5818,
  "ोनो": 5819,
  " दिखने": 5820,
  " संभावित": 5821,
  " तीर्थ": 5822,
  " यूरो": 5823,
  " अपर": 5824,
  "किसी": 5825,
  " बांट": 5826,
  " ऑप": 5827,
  " कामका": 5828,
  "टीएम": 5829,
  " बॉल": 5830,
  " कब्जा": 5831,
  "स्कृतिक": 5832,
  " पिछला": 5833,
  " पायल": 5834,
  " उल्लंघन": 5835,
  "स्तों": 5836,
  " मेन": 5837,
  " रखकर": 5838,
  " पारित": 5839,
  " अभिषेक": 5840,
  " पिक्से": 5841,
  " स्कीम": 5842,
  "कर्ष": 5843,
  " शिक्षण": 5844,
  " रंगीन": 5845,
  " रकम": 5846,
  " स्नातक": 5847,
  " सीनियर": 5848,
  " आग्रह": 5849,
  " क्लास": 5850,
  " कोविड": 5851,
  " यकीन": 5852,
  " मेले": 5853,
  " काटने": 5854,
  " वार्षिक": 5855,
  " छवियों": 5856,
  "पंच": 5857,
  " ओल": 5858,
  " एसपी": 5859,
  " शेयरों": 5860,
  " चालक": 5861,
  "ीट": 5862,
  "एड": 5863,
  " =": 5864,
  " आलिया": 5865,
  " विद्यार्थी": 5866,
  "स्वामी": 5867,
  "देखो": 5868,
  " समर्पित": 5869,
  "लर": 5870,
  "२४": 5871,
  "स्मिक": 5872,
  " ट्रेलर": 5873,
  " गड़ब": 5874,
  " खिताब": 5875,
  "धारी": 5876,
  " घो": 5877,
  " छाया": 5878,
  " असूस": 5879,
  "ार्थियों": 5880,
  " ज़े": 5881,
  "कश्मीर": 5882,
  " मेर": 5883,
  " जिसमे": 5884,
  " जिम": 5885,
  " गेंदबाज": 5886,
  " दाखिल": 5887,
  " शिखर": 5888,
  "चकित": 5889,
  "ोजक": 5890,
  " २५०००": 5891,
  " प्रकट": 5892,
  " फ़िल्म": 5893,
  " हमले": 5894,
  "ब्दी": 5895,
  " एक्सच": 5896,
  " सुविधाएं": 5897,
  " छोड़ने": 5898,
  "लंका": 5899,
  " कलाकार": 5900,
  " तुम्हें": 5901,
  " सवारी": 5902,
  " पंडित": 5903,
  " सराहना": 5904,
  " बढ़ोतरी": 5905,
  " शुभकामना": 5906,
  "पिक्सल": 5907,
  " लाइसेंस": 5908,
  "ख्य": 5909,
  " शॉ": 5910,
  " मध्यम": 5911,
  " प्रश्": 5912,
  "क्षेत्र": 5913,
  "सवाल": 5914,
  "स्पर्": 5915,
  " सेल्स": 5916,
  " तलाक": 5917,
  " माध्यमिक": 5918,
  " सचिन": 5919,
  " मुहै": 5920,
  " मिश्रण": 5921,
  " धान": 5922,
  " आंध": 5923,
  " जुड़े": 5924,
  " बहस": 5925,
  " सिलस": 5926,
  " चक्कर": 5927,
  " जागरूकता": 5928,
  " तितली": 5929,
  " एकमात्र": 5930,
  "मस": 5931,
  "सुर": 5932,
  " व्यापारियों": 5933,
  " साउथ": 5934,
  " नॉ": 5935,
  "करे": 5936,
  "ांसी": 5937,
  " १५०": 5938,
  " प्रयासों": 5939,
  " तीसरा": 5940,
  " विपक्षी": 5941,
  " सेटिंग्स": 5942,
  " साधारण": 5943,
  " चेयरमैन": 5944,
  " आश्चर्यचकित": 5945,
  "यो": 5946,
  "२००": 5947,
  " पड़ा": 5948,
  " कालेज": 5949,
  " समन्व": 5950,
  " इशारा": 5951,
  " हार्दिक": 5952,
  " पनासोनिक": 5953,
  " एकत्र": 5954,
  " कर्मियों": 5955,
  " शुभार": 5956,
  " पकड़ने": 5957,
  "वेदनशील": 5958,
  " ...": 5959,
  " करूंगा": 5960,
  " वेरिएंट": 5961,
  "डू": 5962,
  "ंदे": 5963,
  " पहना": 5964,
  " बुनियादी": 5965,
  " मंड": 5966,
  " संबंधों": 5967,
  " रूट": 5968,
  " मिर्च": 5969,
  "स्वरूप": 5970,
  " सुरेश": 5971,
  " प्रभु": 5972,
  " पुनर्": 5973,
  " खरगोश": 5974,
  " मुहैया": 5975,
  "शियों": 5976,
  " सोनी": 5977,
  "टिम": 5978,
  " इकट्ठा": 5979,
  "ूष": 5980,
  "ेगी": 5981,
  " ऑल": 5982,
  " ट्रेनिंग": 5983,
  " प्रोटीन": 5984,
  " दिनेश": 5985,
  " सर्वाधिक": 5986,
  " खतरे": 5987,
  " शख": 5988,
  "िसी": 5989,
  " नाय": 5990,
  " अल्": 5991,
  " करेंगी": 5992,
  " गौरव": 5993,
  " उपभोक्ता": 5994,
  " द्वितीय": 5995,
  " दिग्गज": 5996,
  "अन": 5997,
  "िके": 5998,
  " समझते": 5999,
  " सिविल": 6000,
  " इरा": 6001,
  " इंदौर": 6002,
  " खिड़की": 6003,
  " शर्": 6004,
  " सबको": 6005,
  " २०११": 6006,
  " ताली": 6007,
  " ट्रस्ट": 6008,
  " डालें": 6009,
  "01": 6010,
  " ३७": 6011,
  " मिलेंगे": 6012,
  " प्रतीक": 6013,
  "्रल": 6014,
  "वाणी": 6015,
  " लिखी": 6016,
  " रियल": 6017,
  " दृश्य": 6018,
  "षभ": 6019,
  " चन्द्र": 6020,
  "र्माण": 6021,
  " उठाए": 6022,
  " चिकित्सक": 6023,
  " पब्लिक": 6024,
  " कच": 6025,
  " किंग": 6026,
  " फंस": 6027,
  " एनसी": 6028,
  " मुसलमान": 6029,
  "िफिकेशन": 6030,
  " आकस्मिक": 6031,
  " फस": 6032,
  "्रीट": 6033,
  "श्त": 6034,
  " जेब": 6035,
  " गुस्सा": 6036,
  " ५५": 6037,
  " बनाएं": 6038,
  " अभिय": 6039,
  "दर्श": 6040,
  " अभिनय": 6041,
  " पाउडर": 6042,
  "भु": 6043,
  "वाया": 6044,
  " देरी": 6045,
  " बाढ़": 6046,
  "शिक्ष": 6047,
  " घुट": 6048,
  "फ़ोन": 6049,
  " दिव्या": 6050,
  " घटनाओं": 6051,
  " पश्चिमी": 6052,
  " चुप": 6053,
  "्यादि": 6054,
  " पैन": 6055,
  " टाटा": 6056,
  "इंडीज": 6057,
  " गिन": 6058,
  " पार्टियों": 6059,
  " जोड़ने": 6060,
  " निपटने": 6061,
  "रेटर": 6062,
  "लेशन": 6063,
  "सैमसंग": 6064,
  "बहुत": 6065,
  " उज": 6066,
  " सुर्": 6067,
  "ष्क": 6068,
  " २०१२": 6069,
  " सहज": 6070,
  " भेजने": 6071,
  "लीला": 6072,
  " रोजाना": 6073,
  "संख्य": 6074,
  "तियां": 6075,
  "प्रकाश": 6076,
  " खबरें": 6077,
  " जायेंगे": 6078,
  " रिटर्न": 6079,
  "लिखित": 6080,
  " चक": 6081,
  " कंग": 6082,
  " जीते": 6083,
  "प्रा": 6084,
  "ार्टमेंट": 6085,
  " कुशल": 6086,
  " भावनाओं": 6087,
  " खड़ी": 6088,
  "ंपिक": 6089,
  "क्यू": 6090,
  " निकला": 6091,
  "ल्डर": 6092,
  "ऊंगा": 6093,
  " राजकुमार": 6094,
  " हेल्थ": 6095,
  "ईडी": 6096,
  "गुरु": 6097,
  "आरसी": 6098,
  " महाविद्यालय": 6099,
  " अरुण": 6100,
  " गुलाबी": 6101,
  " अधिव": 6102,
  " उड़ा": 6103,
  "देह": 6104,
  " ४०००": 6105,
  " बेचने": 6106,
  " नजदी": 6107,
  " शिशु": 6108,
  "जिया": 6109,
  "ेंसी": 6110,
  " अवगत": 6111,
  " समस्याएं": 6112,
  " जलवा": 6113,
  "क्सीन": 6114,
  " सिद्धार्थ": 6115,
  " कुर्सी": 6116,
  " वकील": 6117,
  "नाल": 6118,
  "टिक": 6119,
  "क्की": 6120,
  " फुल": 6121,
  "दून": 6122,
  " ६५": 6123,
  " निस्संदेह": 6124,
  "४५": 6125,
  "क्षिक": 6126,
  " चुने": 6127,
  " जोड़ा": 6128,
  "ज़ा": 6129,
  " सहयोगी": 6130,
  " पढ": 6131,
  " प्रि": 6132,
  " एकल": 6133,
  "सीन": 6134,
  " मानक": 6135,
  " स्पोर्ट": 6136,
  " फीसद": 6137,
  " गेंदबाजी": 6138,
  "दायिक": 6139,
  " प्रोफेसर": 6140,
  " सांस्कृतिक": 6141,
  ".।": 6142,
  " किस्": 6143,
  " होली": 6144,
  "च्चे": 6145,
  " रेत": 6146,
  " दोहरा": 6147,
  " पूर्वी": 6148,
  " प्रतिस्पर्": 6149,
  " हट": 6150,
  "ालों": 6151,
  "केल": 6152,
  "वेस्ट": 6153,
  " रोने": 6154,
  "सायिक": 6155,
  " फाइलों": 6156,
  " अत्यधिक": 6157,
  " ड्यूटी": 6158,
  " खारिज": 6159,
  " एकता": 6160,
  " मिलना": 6161,
  " चलती": 6162,
  " ठंड": 6163,
  " प्रकरण": 6164,
  "स्पति": 6165,
  " चांदी": 6166,
  " प्रतिनिधित्व": 6167,
  "र्प": 6168,
  " रिश": 6169,
  "ंक्शन": 6170,
  " जबरदस्त": 6171,
  " सटी": 6172,
  " गार्ड": 6173,
  " रुचि": 6174,
  " गौतम": 6175,
  "िने": 6176,
  " हैंड": 6177,
  " धु": 6178,
  "टीवी": 6179,
  " कैश": 6180,
  " ३८": 6181,
  " जर्म": 6182,
  "एएस": 6183,
  " सर्क": 6184,
  "वीरों": 6185,
  "एडा": 6186,
  "वर्न": 6187,
  " संपन्न": 6188,
  " क्रमश": 6189,
  " मस्जिद": 6190,
  " इत्यादि": 6191,
  "डम": 6192,
  "२३": 6193,
  "णों": 6194,
  " नारे": 6195,
  " वर्षा": 6196,
  " किन्तु": 6197,
  " गौरतलब": 6198,
  " तत्वों": 6199,
  " झटका": 6200,
  " शाहरुख": 6201,
  " 6": 6202,
  "प्ली": 6203,
  " शिल्": 6204,
  " आश्": 6205,
  " स्त्री": 6206,
  " गंभीरता": 6207,
  " अधीन": 6208,
  " सांप": 6209,
  " नयी": 6210,
  " प्रवाह": 6211,
  " लिखे": 6212,
  " बैंकिंग": 6213,
  " मांसपेश": 6214,
  " अधि": 6215,
  "परेशन": 6216,
  "फाइन": 6217,
  " गणित": 6218,
  "डीपी": 6219,
  "केदार": 6220,
  " फाइल": 6221,
  " राजकीय": 6222,
  "तायात": 6223,
  "डब्ल्यू": 6224,
  " बेस": 6225,
  "वायर": 6226,
  " त्यो": 6227,
  " सिद्धांत": 6228,
  " जिक्र": 6229,
  "यहां": 6230,
  " आरोपी": 6231,
  " विनिर्देशों": 6232,
  " सभ": 6233,
  "शिक": 6234,
  " नित": 6235,
  " अधिकतर": 6236,
  " नाक": 6237,
  " फूड": 6238,
  " धरती": 6239,
  " जहाज": 6240,
  " परिस्थितियों": 6241,
  " साझेदारी": 6242,
  " शख्स": 6243,
  " संस्थाओं": 6244,
  " श्रद्धा": 6245,
  " संग्रहण": 6246,
  "हरादून": 6247,
  "बली": 6248,
  " वाइ": 6249,
  " ग्रा": 6250,
  "अमे": 6251,
  " चरणों": 6252,
  " फ़िंगरप्रिंट": 6253,
  "आम": 6254,
  " सबके": 6255,
  " पंत": 6256,
  " ४जी": 6257,
  "अपनी": 6258,
  " इंद्र": 6259,
  " आजकल": 6260,
  " रमेश": 6261,
  " ईमेल": 6262,
  " झूठ": 6263,
  " सिंचाई": 6264,
  "सला": 6265,
  "ंबल": 6266,
  "टेन": 6267,
  " एक्शन": 6268,
  "ग्ध": 6269,
  " एकदम": 6270,
  " क्ली": 6271,
  "्वाल": 6272,
  " बोले": 6273,
  "वर्ती": 6274,
  " लिखने": 6275,
  " इज": 6276,
  " राजद": 6277,
  " स्क्र": 6278,
  " हीरो": 6279,
  " बढ़ता": 6280,
  "ोग्रा": 6281,
  "ूंकि": 6282,
  " अर्ध": 6283,
  " वितरित": 6284,
  " कोट": 6285,
  " कुंड": 6286,
  "प्री": 6287,
  "बीसी": 6288,
  " विशेषता": 6289,
  " भेजे": 6290,
  "समय": 6291,
  " दिखता": 6292,
  "पाठी": 6293,
  " ग्लोबल": 6294,
  " परिप": 6295,
  " मनाने": 6296,
  " मूर्ति": 6297,
  "फ्तार": 6298,
  " समझौता": 6299,
  " ४४": 6300,
  " मुझसे": 6301,
  " प्रशासनिक": 6302,
  " अनुप": 6303,
  " विष्णु": 6304,
  "ूती": 6305,
  "ासा": 6306,
  "प्रति": 6307,
  " गुप्त": 6308,
  "जॉन": 6309,
  " प्रस्तावित": 6310,
  " संक्रमित": 6311,
  " डेज़ी": 6312,
  "डॉ": 6313,
  " हंग": 6314,
  "ुरे": 6315,
  "िल्ला": 6316,
  " छिप": 6317,
  " केंद्रों": 6318,
  " केरल": 6319,
  " ऊंचाई": 6320,
  " चिल्ला": 6321,
  " प्रोत्साहित": 6322,
  " पाइप": 6323,
  " अधीक्षक": 6324,
  " पूजन": 6325,
  " बतौर": 6326,
  " हड़": 6327,
  " टक": 6328,
  " दायर": 6329,
  " निवेशकों": 6330,
  " आचार्य": 6331,
  "ज़ा": 6332,
  " सीता": 6333,
  "वेज": 6334,
  " मानें": 6335,
  " ज़र": 6336,
  " पनीर": 6337,
  "गर्": 6338,
  " इनकार": 6339,
  " खाद": 6340,
  "खपुर": 6341,
  " गणना": 6342,
  " विशेषज्ञों": 6343,
  " कनेक्ट": 6344,
  "द्दीन": 6345,
  " पौधों": 6346,
  " गड": 6347,
  "तीत": 6348,
  "खियों": 6349,
  "सेक्स": 6350,
  " अब्": 6351,
  " डेवल": 6352,
  " 1२": 6353,
  " धोखा": 6354,
  " हंसते": 6355,
  " मासिक": 6356,
  " एक्सचेंज": 6357,
  "ंगिक": 6358,
  " कुकी": 6359,
  " २०१०": 6360,
  " पोष": 6361,
  " सत्या": 6362,
  " दोषी": 6363,
  " बिंदु": 6364,
  "ड़ने": 6365,
  " वस": 6366,
  " वें": 6367,
  " बाड़": 6368,
  "चंद": 6369,
  " कायम": 6370,
  " जॉब": 6371,
  "न्वयन": 6372,
  " भिन्न": 6373,
  " पेयजल": 6374,
  " भागीदारी": 6375,
  " सर्वोच्च": 6376,
  "मिया": 6377,
  "शांत": 6378,
  "जिटिव": 6379,
  " मतदाताओं": 6380,
  " एंट्री": 6381,
  " पिक्सेल्स": 6382,
  " यातायात": 6383,
  "पं": 6384,
  "म्र": 6385,
  " पीसी": 6386,
  " आयी": 6387,
  " कानपुर": 6388,
  " उधर": 6389,
  "सबसे": 6390,
  " शुक्ला": 6391,
  " व्यावसायिक": 6392,
  "जाने": 6393,
  " सोल": 6394,
  " निकले": 6395,
  " आदत": 6396,
  " ब्राह": 6397,
  "ंडीगढ़": 6398,
  " बूथ": 6399,
  " उल्लेखनीय": 6400,
  " बेंच": 6401,
  "भू": 6402,
  "काय": 6403,
  "कोट": 6404,
  " सीसी": 6405,
  " मास्क": 6406,
  " बेटा": 6407,
  " निवास": 6408,
  " संतु": 6409,
  " मनीष": 6410,
  " सॉफ्टवेयर": 6411,
  " जस्टिस": 6412,
  " बेनी": 6413,
  " सहारा": 6414,
  " सोचते": 6415,
  "जुर्ग": 6416,
  " इंचा": 6417,
  " इंस्टिट": 6418,
  " शर्त": 6419,
  " फायदेमंद": 6420,
  " अभ्यर्थियों": 6421,
  " एसडीएम": 6422,
  "नाडु": 6423,
  " ज्ञापन": 6424,
  " वेस्टइंडीज": 6425,
  "पीसी": 6426,
  " स्टार्ट": 6427,
  " पीएच": 6428,
  " आधे": 6429,
  " 1३": 6430,
  " रिश्ता": 6431,
  " निशान": 6432,
  "ह्न": 6433,
  " पोषण": 6434,
  "ोत्सव": 6435,
  " श्रीलंका": 6436,
  "२६": 6437,
  "बाई": 6438,
  "एमसी": 6439,
  " इमार": 6440,
  " चीफ": 6441,
  " पंजीकृत": 6442,
  "्यौ": 6443,
  " यहीं": 6444,
  "ेशक": 6445,
  " विरु": 6446,
  " एयरपोर्ट": 6447,
  " वाई": 6448,
  " डिज़": 6449,
  " लेवल": 6450,
  " गुफा": 6451,
  "चार्ज": 6452,
  " फर्जी": 6453,
  " सीबीआई": 6454,
  " ब्रिटेन": 6455,
  " आश्वासन": 6456,
  "शिव": 6457,
  " गोपाल": 6458,
  " १२८": 6459,
  " निर्देशक": 6460,
  " बाजारों": 6461,
  " रायपुर": 6462,
  " एडमिट": 6463,
  " सीईओ": 6464,
  " विज": 6465,
  "द्री": 6466,
  " लांच": 6467,
  " जुर्मा": 6468,
  " मंत्रियों": 6469,
  " ड्राइवर": 6470,
  "रात्रि": 6471,
  "ीप": 6472,
  "ंत्रिक": 6473,
  " नेहर": 6474,
  " जानकार": 6475,
  " सरकारों": 6476,
  " गोयल": 6477,
  " दस्तावेज": 6478,
  " मल्टीमीडिया": 6479,
  " ष": 6480,
  "मक्": 6481,
  "धित": 6482,
  " सेक्स": 6483,
  " लिप": 6484,
  " चलाया": 6485,
  " १९७": 6486,
  " मुस्कुराते": 6487,
  " कस्टम": 6488,
  " स्पीड": 6489,
  " जटिल": 6490,
  " मैनेजमेंट": 6491,
  "ुरू": 6492,
  "्योर": 6493,
  " संसार": 6494,
  "वर्धन": 6495,
  " कॉले": 6496,
  " रेस": 6497,
  " मजबूती": 6498,
  " हिल": 6499,
  "बेल": 6500,
  " पालिका": 6501,
  "मंडल": 6502,
  " बर्बाद": 6503,
  " क्वा": 6504,
  " छुट्टी": 6505,
  " अर्थात": 6506,
  "स्ड": 6507,
  "ड़ियों": 6508,
  " बैल": 6509,
  " क्षति": 6510,
  " केदार": 6511,
  " जूनियर": 6512,
  "प्रश्न": 6513,
  " शहीद": 6514,
  " इंस्टिट्यूट": 6515,
  "३७": 6516,
  " आॅ": 6517,
  "वाय": 6518,
  "स्सी": 6519,
  "ंचित": 6520,
  " पत्रिका": 6521,
  "णिज": 6522,
  " ऋषि": 6523,
  " विफल": 6524,
  " आइए": 6525,
  " समझौते": 6526,
  "चौ": 6527,
  "न्नी": 6528,
  "सभी": 6529,
  "दाई": 6530,
  " हाला": 6531,
  " फर्क": 6532,
  "विज्ञान": 6533,
  " देशभर": 6534,
  " जेटली": 6535,
  " रजिस्ट्रेशन": 6536,
  " वाराणसी": 6537,
  " आओ": 6538,
  " फि": 6539,
  " मद्": 6540,
  "मेरे": 6541,
  "ून्य": 6542,
  " वृक्ष": 6543,
  " सदस्यता": 6544,
  " खबरों": 6545,
  " संवेदनशील": 6546,
  " त्रिपाठी": 6547,
  "ढक": 6548,
  " जाग": 6549,
  "व्या": 6550,
  " मेला": 6551,
  " गुल": 6552,
  " ३९": 6553,
  " पैनल": 6554,
  " लापरवाही": 6555,
  "शै": 6556,
  "करार": 6557,
  "दमी": 6558,
  " दिलाने": 6559,
  "भोपाल": 6560,
  " प्रारंभिक": 6561,
  "जना": 6562,
  " प्राय": 6563,
  "णियों": 6564,
  " म्त": 6565,
  " फ़ाइल": 6566,
  " आमिर": 6567,
  " लैंड": 6568,
  " बोलने": 6569,
  " ईरान": 6570,
  " इलेक्ट्रिक": 6571,
  " प्रतिबद्ध": 6572,
  "कर्मियों": 6573,
  "ाइम": 6574,
  "रानी": 6575,
  " टोक": 6576,
  " सेकंड": 6577,
  " स्ल": 6578,
  "ष्का": 6579,
  " बॉडी": 6580,
  " यूएस": 6581,
  " अश्व": 6582,
  " घुस": 6583,
  " रणबीर": 6584,
  " ४००००": 6585,
  " विश्वसनीय": 6586,
  "जागर": 6587,
  " घटा": 6588,
  "हमारे": 6589,
  " मिठ": 6590,
  "बॉक्स": 6591,
  " प्रबंधक": 6592,
  " तस्वीरों": 6593,
  "णिज्य": 6594,
  " गत": 6595,
  " कार्यकारी": 6596,
  "िस्टर": 6597,
  " मार्गदर्शन": 6598,
  "६५": 6599,
  "प्लाई": 6600,
  " ग्रेड": 6601,
  " इवेंट": 6602,
  " इंस्टीट": 6603,
  " मेगापिक्सल": 6604,
  "खार": 6605,
  " जौ": 6606,
  "किट": 6607,
  " भूप": 6608,
  "रीबी": 6609,
  " बुद्ध": 6610,
  " बैठा": 6611,
  "िटीज": 6612,
  " ट्रेनों": 6613,
  " आरंभ": 6614,
  " अतः": 6615,
  "द्वार": 6616,
  "ुस्तान": 6617,
  " विनोद": 6618,
  " उपभोक्ताओं": 6619,
  "मू": 6620,
  " लह": 6621,
  "टेल": 6622,
  " लाई": 6623,
  "मैक्स": 6624,
  " असल": 6625,
  " जस": 6626,
  "िनर": 6627,
  "ोसी": 6628,
  " पापा": 6629,
  " फ़िल्म": 6630,
  " तुम्हारे": 6631,
  " आजादी": 6632,
  "थन": 6633,
  "ान्य": 6634,
  " फॉल": 6635,
  "ंपरिक": 6636,
  " निर्देशित": 6637,
  " यूरोप": 6638,
  " नज़र": 6639,
  " ऑपरेशन": 6640,
  "विल": 6641,
  "िएट": 6642,
  "५००": 6643,
  " किरण": 6644,
  " मिड": 6645,
  " पराम": 6646,
  " आपदा": 6647,
  "वीय": 6648,
  " सूत्र": 6649,
  " माउस": 6650,
  " भव्य": 6651,
  " लैस": 6652,
  " सितम्बर": 6653,
  " आंकड़ों": 6654,
  " अफसरों": 6655,
  " शास्त्री": 6656,
  " ख्याल": 6657,
  " गवर्न": 6658,
  "नव": 6659,
  " काग": 6660,
  "कांत": 6661,
  "एमएस": 6662,
  "िमला": 6663,
  " आईं": 6664,
  "ग्रस्त": 6665,
  " निर्देशन": 6666,
  " अत्यंत": 6667,
  " सैन्य": 6668,
  " दब": 6669,
  " एसी": 6670,
  "माटर": 6671,
  " ईद": 6672,
  "र्वाद": 6673,
  " हराया": 6674,
  "मेन्ट": 6675,
  " नवीन": 6676,
  " संतुलन": 6677,
  " ढांच": 6678,
  "पचारिक": 6679,
  "ंगर": 6680,
  "ोनी": 6681,
  "सात": 6682,
  " स्टो": 6683,
  "सून": 6684,
  " हाद": 6685,
  " निकाली": 6686,
  " चीज़": 6687,
  " भेद": 6688,
  " पागल": 6689,
  " जाँच": 6690,
  " घूमने": 6691,
  " नौकरियों": 6692,
  " बोतल": 6693,
  " निशानेबाजों": 6694,
  " वसा": 6695,
  "पीय": 6696,
  " व्यय": 6697,
  " तरीकों": 6698,
  " परमाण": 6699,
  "ऐसे": 6700,
  " महेश": 6701,
  "ड्स": 6702,
  "नांक": 6703,
  " सुनकर": 6704,
  "पालन": 6705,
  " धारण": 6706,
  " ऑनबोर्ड": 6707,
  " डेब्यू": 6708,
  " टेडी": 6709,
  "ैर्य": 6710,
  " बसों": 6711,
  " मिथ": 6712,
  " उदय": 6713,
  "बैक": 6714,
  " चयनित": 6715,
  " मुकेश": 6716,
  " कथित": 6717,
  " अस्तित्व": 6718,
  " कामकाज": 6719,
  "बंधित": 6720,
  "सीसीआई": 6721,
  " सिंधिया": 6722,
  " मद्देन": 6723,
  "९०": 6724,
  " कोने": 6725,
  " मेज": 6726,
  "ब्ब": 6727,
  " उजाला": 6728,
  "खु": 6729,
  " अह": 6730,
  " किल": 6731,
  "सेल": 6732,
  "ोगी": 6733,
  "स्कर": 6734,
  " कक्ष": 6735,
  "लील": 6736,
  " डिली": 6737,
  "मैंने": 6738,
  "उधर": 6739,
  " कमलनाथ": 6740,
  " जादू": 6741,
  " एसओसी": 6742,
  " रिलायंस": 6743,
  "यत": 6744,
  "शय": 6745,
  " कुश": 6746,
  " २०००": 6747,
  " :-": 6748,
  " पेड़ों": 6749,
  " पाठक": 6750,
  " आभारी": 6751,
  " त्योहार": 6752,
  " ं": 6753,
  " सत्": 6754,
  " दां": 6755,
  "डीओ": 6756,
  " अभाव": 6757,
  " सलाहकार": 6758,
  "मराह": 6759,
  " लघु": 6760,
  " पांडेय": 6761,
  " शूटर": 6762,
  " डु": 6763,
  "अरे": 6764,
  " अवार्ड": 6765,
  " साइकिल": 6766,
  "शास्त्र": 6767,
  " ब्रह्मा": 6768,
  " हक": 6769,
  " निल": 6770,
  "िवे": 6771,
  " ग्ला": 6772,
  " जनसं": 6773,
  " पत्तियों": 6774,
  " संस्कृत": 6775,
  "मार्ग": 6776,
  " डिज़ाइन": 6777,
  " कन्": 6778,
  " फिस": 6779,
  "जिये": 6780,
  " खरीदा": 6781,
  " एग्जाम": 6782,
  " जाया": 6783,
  "्ति": 6784,
  "बंद": 6785,
  " पवन": 6786,
  "मेन": 6787,
  "सरकार": 6788,
  " नेपाल": 6789,
  " कुंभ": 6790,
  " प्राइम": 6791,
  " प्लांट": 6792,
  " मैसेज": 6793,
  " विरुद्ध": 6794,
  "ेंच": 6795,
  "महा": 6796,
  "पनों": 6797,
  " संस्कार": 6798,
  " स्थायी": 6799,
  "टिम्मी": 6800,
  " पॉजिटिव": 6801,
  "व्र": 6802,
  " बनाती": 6803,
  "स्तु": 6804,
  "ल्डिंग": 6805,
  "पुट": 6806,
  " बर्तन": 6807,
  "९९९": 6808,
  " पदाधिकारियों": 6809,
  " शून्य": 6810,
  "हाई": 6811,
  "ौली": 6812,
  " प्रजा": 6813,
  "प्रो": 6814,
  "जीवन": 6815,
  "शियम": 6816,
  " मस्ती": 6817,
  " डराव": 6818,
  " भूख": 6819,
  " गरीबों": 6820,
  " रचनात्मक": 6821,
  " ऑप्शन": 6822,
  " गरीबी": 6823,
  " धैर्य": 6824,
  " कांग": 6825,
  "समा": 6826,
  " धूल": 6827,
  " गोवा": 6828,
  "कर्मी": 6829,
  " आलू": 6830,
  " पहनने": 6831,
  " मोटा": 6832,
  " ट्रैफिक": 6833,
  " तूफान": 6834,
  " शैक्षिक": 6835,
  " कॉलेजों": 6836,
  "राना": 6837,
  "ज़ार": 6838,
  " आभार": 6839,
  " सवालों": 6840,
  " आराध": 6841,
  " ज़रूरत": 6842,
  " आत्मविश्वास": 6843,
  " परामर्श": 6844,
  " पाना": 6845,
  "अनु": 6846,
  " गाइड": 6847,
  " फसलों": 6848,
  " बुजुर्ग": 6849,
  " 4": 6850,
  " वार": 6851,
  "म्मा": 6852,
  " मुक्ति": 6853,
  " शरद": 6854,
  " परम": 6855,
  "लांग": 6856,
  "च्छा": 6857,
  "धनों": 6858,
  " युक्त": 6859,
  " लॉग": 6860,
  "ंगाना": 6861,
  "जुए": 6862,
  " विभागीय": 6863,
  " स्त": 6864,
  " प्रका": 6865,
  "किस": 6866,
  "पानी": 6867,
  "ेक्स": 6868,
  " चलेगा": 6869,
  " असफल": 6870,
  "ध्याय": 6871,
  "''": 6872,
  "क्क": 6873,
  "िवारिक": 6874,
  "ंबू": 6875,
  " हल्का": 6876,
  " आरामदायक": 6877,
  " नेहरू": 6878,
  "रेन": 6879,
  "ज़न": 6880,
  "आईसी": 6881,
  " परवाह": 6882,
  "राष्ट्र": 6883,
  " मनोहर": 6884,
  " कम्पनी": 6885,
  " संपाद": 6886,
  "याग": 6887,
  "लिक": 6888,
  " मारा": 6889,
  " बेट": 6890,
  "सुन": 6891,
  " दुर्गा": 6892,
  " धक्का": 6893,
  " बेंगल": 6894,
  " पैटर्न": 6895,
  " कैल": 6896,
  " अंडे": 6897,
  " टहल": 6898,
  " उन्हीं": 6899,
  " पारंपरिक": 6900,
  " छड़ी": 6901,
  "ोरम": 6902,
  " बचे": 6903,
  "त्मिक": 6904,
  " प्रशंस": 6905,
  "चालित": 6906,
  " सतर्क": 6907,
  " मूवी": 6908,
  " खनन": 6909,
  "ोजी": 6910,
  " कैप": 6911,
  "एनएस": 6912,
  " आपत्ति": 6913,
  " आंगन": 6914,
  " निफ्टी": 6915,
  "ँकि": 6916,
  " परीक्षाओं": 6917,
  " चुनौ": 6918,
  "कुमारी": 6919,
  " कठोर": 6920,
  "ोरेट": 6921,
  " दुकानों": 6922,
  " फाउंड": 6923,
  " किताबें": 6924,
  " स्वीकृति": 6925,
  " निचले": 6926,
  " अल्पसंख्य": 6927,
  " ब्राह्मण": 6928,
  " कार्या": 6929,
  " वास": 6930,
  "शक्ति": 6931,
  " झप": 6932,
  "पूत": 6933,
  " २००९": 6934,
  " नमू": 6935,
  " सर्वेक्षण": 6936,
  " चरित्र": 6937,
  " गारंटी": 6938,
  " आशीर्वाद": 6939,
  "इज": 6940,
  " पांड": 6941,
  "प्पी": 6942,
  " हॉल": 6943,
  " सैंड": 6944,
  "लिये": 6945,
  " कमीशन": 6946,
  "सैन": 6947,
  " नगरी": 6948,
  " शुभारंभ": 6949,
  " टमाटर": 6950,
  " अछ": 6951,
  "क्ष्म": 6952,
  "क्स्ट": 6953,
  "ोकिया": 6954,
  "हिता": 6955,
  " गोली": 6956,
  "ियमित": 6957,
  " गुणों": 6958,
  " मिक्स": 6959,
  "अमर": 6960,
  "जैसा": 6961,
  " फीचर्स": 6962,
  "ऩे": 6963,
  "ंबा": 6964,
  " नीर": 6965,
  " बैठकर": 6966,
  " पाण्ड": 6967,
  " पर्दे": 6968,
  "बन": 6969,
  "जग": 6970,
  "लीन": 6971,
  " बैंड": 6972,
  " सूच": 6973,
  "ैगन": 6974,
  " जूझ": 6975,
  " भौतिक": 6976,
  " पायलट": 6977,
  " रफ्तार": 6978,
  " [": 6979,
  "ोकर": 6980,
  " नाश्": 6981,
  "तुम": 6982,
  "निर्": 6983,
  "राशि": 6984,
  " हाथी": 6985,
  " ब्लड": 6986,
  " एक्टिव": 6987,
  " तत्कालीन": 6988,
  "िकेटर": 6989,
  " वाणिज्य": 6990,
  " मद्देनजर": 6991,
  "एप": 6992,
  "डोर": 6993,
  " मेजब": 6994,
  " व्यक्तित्व": 6995,
  " दत्त": 6996,
  " आँखों": 6997,
  " टक्कर": 6998,
  " छत्तीसगढ़": 6999,
  " इलाहाबाद": 7000,
  " बट": 7001,
  "णीय": 7002,
  " बुकिंग": 7003,
  " डॉक्टरों": 7004,
  " विद्यालयों": 7005,
  " घाटी": 7006,
  "ग्रहण": 7007,
  " मैनेजर": 7008,
  " ज्योतिष": 7009,
  " संभ": 7010,
  " क्रिस": 7011,
  " लायक": 7012,
  " चांद": 7013,
  " बेसिक": 7014,
  " वीं": 7015,
  " कलाकारों": 7016,
  " वैज्ञानिकों": 7017,
  " बुद्धिमान": 7018,
  " स्थानांतरित": 7019,
  "क्यों": 7020,
  "एनयू": 7021,
  "जैक": 7022,
  "होम": 7023,
  "ल्लाह": 7024,
  " वर्णन": 7025,
  "कह": 7026,
  " जड़": 7027,
  "िंद": 7028,
  " धीमी": 7029,
  " शहद": 7030,
  " धमकी": 7031,
  " तमिलनाडु": 7032,
  " ​": 7033,
  "ेंग": 7034,
  "सागर": 7035,
  " पीले": 7036,
  " चिन्ह": 7037,
  "चंद्र": 7038,
  " सुन्दर": 7039,
  " सटीक": 7040,
  " परमाणु": 7041,
  " ​​": 7042,
  "टीसी": 7043,
  " उद्ध": 7044,
  "ष्कार": 7045,
  " चोर": 7046,
  " रोब": 7047,
  " चॉप": 7048,
  " साइड": 7049,
  "संघ": 7050,
  " कराना": 7051,
  "प्पल": 7052,
  " दिसम्बर": 7053,
  " अपलोड": 7054,
  " हल्के": 7055,
  " लंदन": 7056,
  " आपस": 7057,
  " बीत": 7058,
  " नीले": 7059,
  " कंटे": 7060,
  " रोगों": 7061,
  "__": 7062,
  " रोशन": 7063,
  " साधन": 7064,
  " अमरी": 7065,
  " टैग": 7066,
  " उत्तरी": 7067,
  " नतीजे": 7068,
  " परिचय": 7069,
  " आंध्र": 7070,
  " नोएडा": 7071,
  "ंछ": 7072,
  " घे": 7073,
  "्यूस": 7074,
  " व्ही": 7075,
  " लकड़ी": 7076,
  " बताए": 7077,
  " कॉपी": 7078,
  "उसके": 7079,
  "च्छेद": 7080,
  " मिमी": 7081,
  " रिकार्ड": 7082,
  " रोगी": 7083,
  " मीटिंग": 7084,
  " कुंजी": 7085,
  " कार्यरत": 7086,
  " काउंसिल": 7087,
  " मेंढक": 7088,
  " एमी": 7089,
  " करीना": 7090,
  " इन्फ": 7091,
  " कीजिए": 7092,
  " छात्राओं": 7093,
  " ज़ेन्": 7094,
  " इंस्टीट्यूट": 7095,
  "गि": 7096,
  "न्ड": 7097,
  "लोग": 7098,
  " कमर": 7099,
  "ुसार": 7100,
  "तालों": 7101,
  " ४५००": 7102,
  " पत्रकारिता": 7103,
  " जवानों": 7104,
  " चैंपियनशिप": 7105,
  " मनोरंजन": 7106,
  " ठाकरे": 7107,
  " जलवायु": 7108,
  " सीन": 7109,
  " दर्जा": 7110,
  " बाई": 7111,
  " हर्ष": 7112,
  "यंती": 7113,
  "स्वती": 7114,
  " गठित": 7115,
  " सशक्त": 7116,
  " पॉलिसी": 7117,
  " बुरे": 7118,
  "२८": 7119,
  "क्य": 7120,
  " पहने": 7121,
  " फ्रे": 7122,
  " ऑनर": 7123,
  "ज़ियाओमी": 7124,
  " धरना": 7125,
  " सच्चाई": 7126,
  " पश्चात": 7127,
  " ज़ेन्फ़ोन": 7128,
  " #": 7129,
  "गित": 7130,
  "रेगा": 7131,
  " छी": 7132,
  " सहकारी": 7133,
  " एजु": 7134,
  " गीता": 7135,
  " घोटाले": 7136,
  " मुकदमा": 7137,
  " प्रश्नों": 7138,
  " वंचित": 7139,
  "ेशर": 7140,
  "ब्रे": 7141,
  " ४३": 7142,
  " बनती": 7143,
  "लपुर": 7144,
  " अभिव": 7145,
  "बेरी": 7146,
  "र्नल": 7147,
  " सोचने": 7148,
  " बोलते": 7149,
  " नवम्बर": 7150,
  " बरकरार": 7151,
  "मुना": 7152,
  " झेल": 7153,
  " घाट": 7154,
  " चिपकता": 7155,
  " परिजनों": 7156,
  " प्रमोशन": 7157,
  " आफ": 7158,
  "ड़ित": 7159,
  "्यूशन": 7160,
  " इस्ते": 7161,
  " जिलाध्यक्ष": 7162,
  " दायरे": 7163,
  " विवेक": 7164,
  " अमीर": 7165,
  " त्याग": 7166,
  " सेंट्रल": 7167,
  " मधुमक्": 7168,
  " संसाधनों": 7169,
  " संहिता": 7170,
  " सूप": 7171,
  " ट्रॉ": 7172,
  " वसू": 7173,
  " द्वीप": 7174,
  " फॉलो": 7175,
  " दिनांक": 7176,
  "तब": 7177,
  "गठ": 7178,
  " झुक": 7179,
  "टेस्ट": 7180,
  " १२०००": 7181,
  "नाल्ड": 7182,
  "शियन": 7183,
  "जेक्शन": 7184,
  "रुण": 7185,
  " महात्मा": 7186,
  "क्टेयर": 7187,
  " उपचुनाव": 7188,
  " कोत": 7189,
  "ंपल": 7190,
  " स्थलों": 7191,
  " समझना": 7192,
  "आईआर": 7193,
  " खिलाड़ी": 7194,
  " चंद्रमा": 7195,
  "रेली": 7196,
  "मेंस": 7197,
  " राधा": 7198,
  "रेशन": 7199,
  "डिशा": 7200,
  "२०१८": 7201,
  " नौकरियां": 7202,
  " पुणे": 7203,
  " किलोग्राम": 7204,
  " अस्पतालों": 7205,
  " इस्तेमाल": 7206,
  "ायें": 7207,
  "भवी": 7208,
  "पाई": 7209,
  " लड़कों": 7210,
  " भागों": 7211,
  " १०००": 7212,
  " सर्वर": 7213,
  " उत्सव": 7214,
  "विधि": 7215,
  "कालिक": 7216,
  "ट्रिक": 7217,
  "तिष्क": 7218,
  "फाइनल": 7219,
  "०१": 7220,
  " सेव": 7221,
  " किट": 7222,
  " बाह": 7223,
  "मानी": 7224,
  "िडी": 7225,
  " प्रतिभाग": 7226,
  " आध्या": 7227,
  " पारिवारिक": 7228,
  "आव": 7229,
  "२७": 7230,
  "याल": 7231,
  "ायती": 7232,
  "वेल": 7233,
  "हमें": 7234,
  " कामों": 7235,
  "िपल": 7236,
  " सुनते": 7237,
  " मन्द": 7238,
  " गर्भ": 7239,
  " श्रेय": 7240,
  " प्रवासी": 7241,
  " स्टूडेंट्स": 7242,
  " जनसंख्या": 7243,
  " इले": 7244,
  " कौर": 7245,
  "पुल": 7246,
  "परि": 7247,
  " रोका": 7248,
  " आदिवासी": 7249,
  " १२वीं": 7250,
  " आयुर्": 7251,
  " फिटनेस": 7252,
  " सालाना": 7253,
  "प्रीत": 7254,
  " जयंती": 7255,
  " रथ": 7256,
  "गोल": 7257,
  " डिस्क": 7258,
  " ट्रां": 7259,
  " अनुवाद": 7260,
  "पालिका": 7261,
  "जुट": 7262,
  "फ्रेंड": 7263,
  " शत्र": 7264,
  "ोली": 7265,
  "संच": 7266,
  "ार्स": 7267,
  " सैल": 7268,
  " मांगों": 7269,
  " फीट": 7270,
  " बनर्जी": 7271,
  " प्रकाशन": 7272,
  " सरस्वती": 7273,
  " ऑड": 7274,
  "भवती": 7275,
  " डालते": 7276,
  " खरीदी": 7277,
  " यूजर": 7278,
  "जपे": 7279,
  " ज्ञात": 7280,
  " रात्रि": 7281,
  " स्थगित": 7282,
  "ख्": 7283,
  " \n": 7284,
  " मंग": 7285,
  "ंसे": 7286,
  " बोल्ड": 7287,
  " उपलब्धि": 7288,
  "श्वर्या": 7289,
  " अभिभाव": 7290,
  " समूहों": 7291,
  " मांसपेशियों": 7292,
  " एकजुट": 7293,
  "बिन": 7294,
  " सील": 7295,
  " पढ़ा": 7296,
  " उतनी": 7297,
  "दोस्तों": 7298,
  " क्रिकेटर": 7299,
  " अपमान": 7300,
  " अवर": 7301,
  " दुष्": 7302,
  "आरपी": 7303,
  " चैन": 7304,
  " श्रेष्ठ": 7305,
  " विभाजित": 7306,
  " फेल": 7307,
  " शिर": 7308,
  " भक्ति": 7309,
  "यात्रा": 7310,
  " उच्चतम": 7311,
  " ३०००": 7312,
  " नीतियों": 7313,
  " प्रीमियम": 7314,
  " एलईडी": 7315,
  " अनुष्का": 7316,
  "द्दा": 7317,
  " मुस्कुराए": 7318,
  " दायित्व": 7319,
  " मेहमान": 7320,
  " चूंकि": 7321,
  "क्षस": 7322,
  " पाप": 7323,
  "स्टिंग": 7324,
  " कामना": 7325,
  "टकों": 7326,
  " आईडी": 7327,
  " टेक": 7328,
  " बियर": 7329,
  " दादा": 7330,
  " तुमसे": 7331,
  "बिहार": 7332,
  "छात्रा": 7333,
  " मकस": 7334,
  " घबरा": 7335,
  " भोजपुरी": 7336,
  " मकसद": 7337,
  " प्रको": 7338,
  " कैफ": 7339,
  " अलर्ट": 7340,
  " दर्जन": 7341,
  " उभर": 7342,
  " स्वीकृत": 7343,
  " ओक्टा": 7344,
  "पहले": 7345,
  " सप्लाई": 7346,
  " इंडेक्स": 7347,
  " मक्": 7348,
  " सर्ट": 7349,
  " अगु": 7350,
  " आवश्यकताओं": 7351,
  " अनुदान": 7352,
  " अवसरों": 7353,
  " साइंस": 7354,
  "नाश": 7355,
  " आपसी": 7356,
  " मुर": 7357,
  " मुना": 7358,
  " गुर्": 7359,
  "जेक्ट": 7360,
  "भावना": 7361,
  " टी२०": 7362,
  " कठिना": 7363,
  " फोकस": 7364,
  " हड़ताल": 7365,
  " हज": 7366,
  " बाँ": 7367,
  " उर्व": 7368,
  "्तों": 7369,
  " अन्यथा": 7370,
  " शॉप": 7371,
  " !!": 7372,
  " आवाज़": 7373,
  " सब्जियों": 7374,
  " सूक्ष्म": 7375,
  " जवा": 7376,
  "लियों": 7377,
  " घड़ी": 7378,
  " जुट": 7379,
  " क्रो": 7380,
  " राणा": 7381,
  " सर्च": 7382,
  " चिकन": 7383,
  " रघु": 7384,
  " हिम्मत": 7385,
  " नींबू": 7386,
  "कोण": 7387,
  " भेंट": 7388,
  " श्रीराम": 7389,
  " बृह": 7390,
  " प्रारम्भ": 7391,
  " पार्षद": 7392,
  " स्पोर्ट्स": 7393,
  " जुर्माना": 7394,
  " अनो": 7395,
  " कहला": 7396,
  " शेड": 7397,
  "ेडकर": 7398,
  " कॉम": 7399,
  " साहू": 7400,
  " एनडीए": 7401,
  "रस": 7402,
  "शहर": 7403,
  " ५१": 7404,
  " सैली": 7405,
  " ७२": 7406,
  " मांगा": 7407,
  " दीक्षित": 7408,
  " ब्राउ": 7409,
  " जितने": 7410,
  " रेंज": 7411,
  " राजपूत": 7412,
  " दही": 7413,
  "क्ष्य": 7414,
  "धाम": 7415,
  " असिस्ट": 7416,
  "ाइयों": 7417,
  " हितों": 7418,
  "महिला": 7419,
  " ब्रिटिश": 7420,
  " प्रोत्साहन": 7421,
  "बीएसई": 7422,
  "वाड़ा": 7423,
  " डाली": 7424,
  " अंश": 7425,
  "ड्डे": 7426,
  " परिवर्त": 7427,
  " छुटकारा": 7428,
  " सम्पूर्ण": 7429,
  " फुटबॉल": 7430,
  " ध्वनि": 7431,
  " श्रमिकों": 7432,
  " छेड़": 7433,
  " सेल्सियस": 7434,
  "तीन": 7435,
  " पाती": 7436,
  " ग्रो": 7437,
  " अमृत": 7438,
  " डूब": 7439,
  " डायरेक्ट": 7440,
  " एजेंस": 7441,
  " सुभाष": 7442,
  " गोरखपुर": 7443,
  "बोन": 7444,
  " निर्द": 7445,
  " कहे": 7446,
  "राबी": 7447,
  "िकेशन": 7448,
  " रेसल": 7449,
  " जीतकर": 7450,
  " घटक": 7451,
  " प्रशांत": 7452,
  " फ्रांस": 7453,
  " प्रारूप": 7454,
  " आर्टिकल": 7455,
  "िसोड": 7456,
  " ओलंपिक": 7457,
  " सनी": 7458,
  "ड़का": 7459,
  "धानिक": 7460,
  " अवस्था": 7461,
  " विद्व": 7462,
  " टॉमी": 7463,
  " ऑर्डर": 7464,
  " स्मिथ": 7465,
  " मंत्रिमंडल": 7466,
  " तेलंगाना": 7467,
  "वाहा": 7468,
  "्वान": 7469,
  " धाम": 7470,
  "धीन": 7471,
  "स्कूल": 7472,
  " गर्ल": 7473,
  " ब्रह्म": 7474,
  " सैनिकों": 7475,
  " पूंछ": 7476,
  " मकर": 7477,
  " पंप": 7478,
  " डिट": 7479,
  " सूचित": 7480,
  " समझाया": 7481,
  " भाषाओं": 7482,
  " टुकड़े": 7483,
  " गहराई": 7484,
  " ट्यूब": 7485,
  " नोटिफिकेशन": 7486,
  " एक्सीन": 7487,
  "रार": 7488,
  " एथ": 7489,
  "लिया": 7490,
  "कला": 7491,
  " मैक": 7492,
  " इमर": 7493,
  " आगरा": 7494,
  " पूछताछ": 7495,
  " संदेह": 7496,
  " अनुभवी": 7497,
  " देनी": 7498,
  " समाय": 7499,
  "प्पा": 7500,
  " पंक": 7501,
  " बिट": 7502,
  "पीएम": 7503,
  " झग": 7504,
  "धाना": 7505,
  " ८०००": 7506,
  " एडम": 7507,
  " अत्या": 7508,
  "मध्य": 7509,
  " हुसैन": 7510,
  " शता": 7511,
  " ४६": 7512,
  "ोरेंस": 7513,
  " आकर्षण": 7514,
  "वैसे": 7515,
  " अध्यापक": 7516,
  " मरम्मत": 7517,
  " कुर": 7518,
  " पुस्त": 7519,
  " अल्ट": 7520,
  " प्रत्यक्ष": 7521,
  " अज्ञ": 7522,
  " सुनना": 7523,
  "प्लस": 7524,
  " लड़कियों": 7525,
  " ब्लाक": 7526,
  " प्रतिष्ठित": 7527,
  " उछाल": 7528,
  " जन्": 7529,
  " स्का": 7530,
  "कोई": 7531,
  "िणी": 7532,
  "नाइट": 7533,
  " डाॅ": 7534,
  " टैब": 7535,
  "म्बई": 7536,
  "वैज्ञानिक": 7537,
  "साइज": 7538,
  "छोटे": 7539,
  " शुभकामनाएं": 7540,
  " गिनती": 7541,
  " लेट": 7542,
  "रिस": 7543,
  " स्टे": 7544,
  " जोड़े": 7545,
  "दोनों": 7546,
  " गन्ना": 7547,
  " घुमा": 7548,
  "अगले": 7549,
  " मन्दिर": 7550,
  " एक्सीनोस": 7551,
  "्रु": 7552,
  "ोरा": 7553,
  " पका": 7554,
  " लिंग": 7555,
  " ४२": 7556,
  " बढ़ी": 7557,
  " बनते": 7558,
  "ासपुर": 7559,
  "प्लो": 7560,
  " लीक": 7561,
  "धारणा": 7562,
  " संपूर्ण": 7563,
  " पड़ती": 7564,
  "आपके": 7565,
  " बालक": 7566,
  " क्विंट": 7567,
  " हल्की": 7568,
  " अभ्यर्थी": 7569,
  "ष्मान": 7570,
  " उन्नत": 7571,
  "ज़ार": 7572,
  " प्रॉ": 7573,
  "एगी": 7574,
  " वेल": 7575,
  " जानकर": 7576,
  "ियंस": 7577,
  "पादन": 7578,
  "पमेंट": 7579,
  " वीक": 7580,
  " चुनने": 7581,
  " उठाना": 7582,
  " विक्रम": 7583,
  " सौंपा": 7584,
  " सीरियल": 7585,
  " म्स्म८९": 7586,
  " संयोजक": 7587,
  " एजुकेशन": 7588,
  " मस्तिष्क": 7589,
  "त्य": 7590,
  " स्क्": 7591,
  "िलाई": 7592,
  "न्दा": 7593,
  "ंधा": 7594,
  " करवाई": 7595,
  " एमएस": 7596,
  " समर्थकों": 7597,
  " जताया": 7598,
  " नाराजगी": 7599,
  " फाउंडेशन": 7600,
  "ऑफ": 7601,
  "लॉ": 7602,
  "डनी": 7603,
  " लिहा": 7604,
  " बच्ची": 7605,
  " डिफ": 7606,
  " चौकी": 7607,
  " २००८": 7608,
  " सोचता": 7609,
  " रिक्र": 7610,
  " रेडियो": 7611,
  " फाइबर": 7612,
  " पीढ़ी": 7613,
  " विडियो": 7614,
  " मण": 7615,
  " हिर": 7616,
  " विक्रे": 7617,
  " रोया": 7618,
  " हार्ड": 7619,
  " बिलकुल": 7620,
  " किस्म": 7621,
  " लीजिए": 7622,
  " प्लेटफॉर्म": 7623,
  " प्रतिरोध": 7624,
  " बौद्ध": 7625,
  " संतुष्ट": 7626,
  " एपिसोड": 7627,
  " कस्": 7628,
  " डिव": 7629,
  " संदीप": 7630,
  " प्रवृत्ति": 7631,
  " सियासी": 7632,
  " झलक": 7633,
  " पीड़ित": 7634,
  "३३": 7635,
  " जद": 7636,
  "मांड": 7637,
  " बैठने": 7638,
  " गाया": 7639,
  " समापन": 7640,
  "कोरोना": 7641,
  " बाबू": 7642,
  " निराशा": 7643,
  " रोमांचक": 7644,
  "ॉर": 7645,
  "त्तर": 7646,
  "ंगाई": 7647,
  " नाज": 7648,
  " समग्र": 7649,
  " हार्म": 7650,
  " तुलसी": 7651,
  "शायद": 7652,
  " स्वचालित": 7653,
  " इट": 7654,
  "न्त्र": 7655,
  "ंधन": 7656,
  " फेस": 7657,
  " बनेगा": 7658,
  " दुश्म": 7659,
  " कुलदीप": 7660,
  " जीवित": 7661,
  " बायो": 7662,
  " तृतीय": 7663,
  " पोषक": 7664,
  "शो": 7665,
  "रेल": 7666,
  " हमे": 7667,
  " मानद": 7668,
  "देवी": 7669,
  " क्रिस्ट": 7670,
  " इंतजाम": 7671,
  " विचारधारा": 7672,
  " श्याम": 7673,
  "कप": 7674,
  " चढ़": 7675,
  " लेखन": 7676,
  " कंधे": 7677,
  " ग्लास": 7678,
  "रन": 7679,
  "बान": 7680,
  "कांक": 7681,
  " गाजर": 7682,
  " विकल्पों": 7683,
  "ॉकलेट": 7684,
  " पादु": 7685,
  " सॉरी": 7686,
  " भरोसे": 7687,
  " अनुपात": 7688,
  " तीव्र": 7689,
  " ओडिशा": 7690,
  " गर्भवती": 7691,
  " केश": 7692,
  " शर्ट": 7693,
  " खेतों": 7694,
  " मौजूदगी": 7695,
  "ॉफ्ट": 7696,
  " गुलाब": 7697,
  " गिलहरी": 7698,
  " फिंगरप्रिंट": 7699,
  " मतगणना": 7700,
  " अवधारणा": 7701,
  "पिंग": 7702,
  "शिंग": 7703,
  "र्जन": 7704,
  " आजम": 7705,
  " नाते": 7706,
  "ष्णा": 7707,
  " पेमेंट": 7708,
  " टैंक": 7709,
  " दृढ़": 7710,
  " सीखना": 7711,
  " वैकल्प": 7712,
  " 20१": 7713,
  " दिव्यांग": 7714,
  " औष": 7715,
  "राद": 7716,
  " ऑफ़": 7717,
  " पहुंचाया": 7718,
  " ज़ि": 7719,
  "उनके": 7720,
  "त्तियों": 7721,
  " लड़की": 7722,
  " कम्यु": 7723,
  " हाइड": 7724,
  " लिहाज": 7725,
  "माय": 7726,
  " मेघ": 7727,
  " सस्ता": 7728,
  " मंदिरों": 7729,
  " मोटो": 7730,
  " रूसी": 7731,
  "नैतिक": 7732,
  " मेकअप": 7733,
  " समुद्री": 7734,
  "गठबंधन": 7735,
  " वैकल्पिक": 7736,
  " पला": 7737,
  "माना": 7738,
  "ंडों": 7739,
  " वाटर": 7740,
  "मिली": 7741,
  "चित्र": 7742,
  "ॉर्क": 7743,
  " प्रोसे": 7744,
  "पेक्ष": 7745,
  " सुशील": 7746,
  " उपयोगकर्ताओं": 7747,
  "घाट": 7748,
  " रहस्य": 7749,
  " बीसीसीआई": 7750,
  " आध्यात्मिक": 7751,
  " मरा": 7752,
  " तिर": 7753,
  " आयकर": 7754,
  " दरों": 7755,
  "मोदी": 7756,
  " खातों": 7757,
  "साइड": 7758,
  " संतान": 7759,
  " गिरने": 7760,
  " अंबानी": 7761,
  " जज": 7762,
  " साई": 7763,
  " रहकर": 7764,
  "सिस": 7765,
  " सदा": 7766,
  "ंटिक": 7767,
  " पैरा": 7768,
  " उदार": 7769,
  " पेस्ट": 7770,
  " हेली": 7771,
  " कृपा": 7772,
  " पुनः": 7773,
  " मिसाइल": 7774,
  " निलंब": 7775,
  " फिसल": 7776,
  "४४": 7777,
  " तप": 7778,
  "्यार": 7779,
  "्ती": 7780,
  " फैक्ट": 7781,
  " ..": 7782,
  " दुरु": 7783,
  " सदर": 7784,
  "राजस्थान": 7785,
  " खरीदारी": 7786,
  " परिणामों": 7787,
  "तिक्रमण": 7788,
  " निम्नलिखित": 7789,
  " यूरोपीय": 7790,
  " रिक्रूट": 7791,
  "सें": 7792,
  "माइ": 7793,
  "ोज़": 7794,
  "सम्म": 7795,
  "स्टेट": 7796,
  "फ्ल": 7797,
  " हिस्सेदारी": 7798,
  " जार": 7799,
  " लल": 7800,
  " जात": 7801,
  " निया": 7802,
  " पाकर": 7803,
  " फलों": 7804,
  " मार्क": 7805,
  "निज": 7806,
  " अधिकारों": 7807,
  " प्रखंड": 7808,
  " निभाई": 7809,
  " चौथी": 7810,
  " समृद्ध": 7811,
  " अन्तर्गत": 7812,
  " सेंसेक्स": 7813,
  " उपाध्याय": 7814,
  " बारह": 7815,
  "डेंट": 7816,
  " अटल": 7817,
  " राउंड": 7818,
  " निष्कर्ष": 7819,
  "िवेदी": 7820,
  " सूचकांक": 7821,
  " मच": 7822,
  " बघ": 7823,
  "इसे": 7824,
  "ल्ले": 7825,
  " जमी": 7826,
  " फीड": 7827,
  " दिखाना": 7828,
  " मांगे": 7829,
  " ज़्यादा": 7830,
  " केबल": 7831,
  " सुनाई": 7832,
  " ऊंची": 7833,
  " भक्तों": 7834,
  " हंगामा": 7835,
  "वाज": 7836,
  "लोरी": 7837,
  " तेंद": 7838,
  "तमंद": 7839,
  "ण्डल": 7840,
  "लेक्सी": 7841,
  " त्रुट": 7842,
  " पासपोर्ट": 7843,
  " आवंटित": 7844,
  " श्रद्धालुओं": 7845,
  " झपकी": 7846,
  " आह्वान": 7847,
  "टू": 7848,
  "फै": 7849,
  "मंत्र": 7850,
  " पद्ध": 7851,
  " कड़ी": 7852,
  " पत्ते": 7853,
  " अवॉर्ड": 7854,
  " स्टोरी": 7855,
  "हैलो": 7856,
  " रावण": 7857,
  " सम्बन्धित": 7858,
  " जरुरत": 7859,
  " अभिव्य": 7860,
  " चॉकलेट": 7861,
  " हौ": 7862,
  " पवार": 7863,
  " अवश": 7864,
  " ''": 7865,
  " इंस्प": 7866,
  "आपका": 7867,
  " गहरे": 7868,
  " रैंकिंग": 7869,
  " इसलिये": 7870,
  "३२": 7871,
  "हाना": 7872,
  "ुली": 7873,
  "दिव": 7874,
  " गंध": 7875,
  " दुल्": 7876,
  " ४९": 7877,
  "कीपर": 7878,
  " दिखाते": 7879,
  " लूट": 7880,
  " निधि": 7881,
  " बढ़ाने": 7882,
  "काउंट": 7883,
  "फिल": 7884,
  " खाम": 7885,
  " रिंग": 7886,
  " कमाल": 7887,
  " स्वि": 7888,
  " बताता": 7889,
  " जानें": 7890,
  " पहुंचकर": 7891,
  " भेजी": 7892,
  "जलि": 7893,
  " आरोपों": 7894,
  " यूनियन": 7895,
  " विश्वविद्यालयों": 7896,
  "ब्बत": 7897,
  " इस्लाम": 7898,
  " घुटने": 7899,
  " कंगना": 7900,
  " औपचारिक": 7901,
  " वरुण": 7902,
  " महंगाई": 7903,
  " पादुकोण": 7904,
  "ट्": 7905,
  " दक्ष": 7906,
  "ाइक": 7907,
  " ईयर": 7908,
  " डील": 7909,
  " दुबे": 7910,
  " पक्षों": 7911,
  " टॉवर": 7912,
  "प्टन": 7913,
  " पात्रता": 7914,
  "दित": 7915,
  " अवि": 7916,
  "इसमें": 7917,
  " चौके": 7918,
  " व्यवस्थित": 7919,
  "िस्ट्रेट": 7920,
  " कार्यशाला": 7921,
  " कलेक्शन": 7922,
  " आजाद": 7923,
  " हथियार": 7924,
  " ईमानदार": 7925,
  " कॉन्फ्रेंस": 7926,
  " हस्तक्षेप": 7927,
  "ख़": 7928,
  "',": 7929,
  " क्": 7930,
  " लेनी": 7931,
  " १९५": 7932,
  " जश्न": 7933,
  " हालाँकि": 7934,
  " अनुच्छेद": 7935,
  " अतिक्रमण": 7936,
  "लाना": 7937,
  " सेले": 7938,
  "फेल": 7939,
  " बेव": 7940,
  "िंक": 7941,
  " सूजन": 7942,
  " हिम": 7943,
  "वानिव": 7944,
  " सिंगल": 7945,
  " आंकड़े": 7946,
  " साधना": 7947,
  " कोमल": 7948,
  " हड्डी": 7949,
  " चट": 7950,
  "बरी": 7951,
  "त्या": 7952,
  " कूल": 7953,
  " लाना": 7954,
  " जुल": 7955,
  " मोम": 7956,
  " ४१": 7957,
  " मुखिया": 7958,
  "मुखी": 7959,
  " असं": 7960,
  "ॉइड": 7961,
  "ूहिक": 7962,
  " मूंग": 7963,
  " आश्रम": 7964,
  " सितारों": 7965,
  " एशियाई": 7966,
  "लग्न": 7967,
  " कॉर्प": 7968,
  " कंबल": 7969,
  " प्रधाना": 7970,
  " प्रोसेसर": 7971,
  "िकर": 7972,
  " र्स": 7973,
  "क्तियों": 7974,
  " बिली": 7975,
  " मान्य": 7976,
  " झूल": 7977,
  "ीकृत": 7978,
  " इन्होंने": 7979,
  " बढ़ाकर": 7980,
  " यौन": 7981,
  "रीदाबाद": 7982,
  " साहिब": 7983,
  " बकाया": 7984,
  " जरुरी": 7985,
  " एटीएम": 7986,
  " प्रत्याशियों": 7987,
  " नोकिया": 7988,
  " शताब्दी": 7989,
  "२९": 7990,
  "पार": 7991,
  " लू": 7992,
  "निस": 7993,
  " हुईं": 7994,
  " दिखावा": 7995,
  "ष्ठा": 7996,
  " सीतार": 7997,
  " मददगार": 7998,
  " लिखकर": 7999,
  " नागरिकता": 8000,
  " शुक्ल": 8001,
  " प्रतिनिधियों": 8002,
  " खपत": 8003,
  " संवाददाता": 8004,
  " नाइट": 8005,
  " बतख": 8006,
  " ऊपरी": 8007,
  " स्नैप": 8008,
  " डू": 8009,
  " कारक": 8010,
  "पीठ": 8011,
  "र्वे": 8012,
  " पीस": 8013,
  " करीबी": 8014,
  " ९९": 8015,
  "चालन": 8016,
  " प्रस्तुति": 8017,
  "विश्व": 8018,
  "मला": 8019,
  "राई": 8020,
  " लिट": 8021,
  "सरत": 8022,
  "वालों": 8023,
  " डेढ़": 8024,
  " भूत": 8025,
  " चैल": 8026,
  " कुमारी": 8027,
  " कर्त": 8028,
  " आपात": 8029,
  " पंचायतों": 8030,
  " मूर्खता": 8031,
  " ऐश्वर्या": 8032,
  " बृहस्पति": 8033,
  " क़": 8034,
  " इक्": 8035,
  "ड़ने": 8036,
  " अनुबंध": 8037,
  " अनदे": 8038,
  " कॉफी": 8039,
  " एमबी": 8040,
  " पंख": 8041,
  " उदास": 8042,
  " परेशानियों": 8043,
  "स्पिटल": 8044,
  " ट्रांसफर": 8045,
  " जैविक": 8046,
  " विनम्र": 8047,
  " कोतवाली": 8048,
  " ईंधन": 8049,
  ":-": 8050,
  "न्ने": 8051,
  " दोग": 8052,
  " गली": 8053,
  " मामा": 8054,
  " वैल": 8055,
  " उपलब्धता": 8056,
  " टाइगर": 8057,
  "क्रीम": 8058,
  " प्रतीक्षा": 8059,
  "जपेयी": 8060,
  "४७": 8061,
  " कव": 8062,
  " पन": 8063,
  "रूप": 8064,
  " कैच": 8065,
  " प्यारा": 8066,
  "िशियल": 8067,
  " ट्रेडिंग": 8068,
  " मामूली": 8069,
  " 7": 8070,
  " साज": 8071,
  "ऐसा": 8072,
  " जोकि": 8073,
  " जिसको": 8074,
  " सब्स": 8075,
  " पीला": 8076,
  " चार्ट": 8077,
  "मेज": 8078,
  " पुज": 8079,
  " आस्था": 8080,
  " भरना": 8081,
  "वाहिक": 8082,
  " देवगन": 8083,
  " नम्बर": 8084,
  " संजीव": 8085,
  " पुष्प": 8086,
  " सेमीफाइनल": 8087,
  " राजनैतिक": 8088,
  "ठक": 8089,
  " ग़": 8090,
  " बताना": 8091,
  "ंवर": 8092,
  "भाविक": 8093,
  "ोरेशन": 8094,
  "ेक्टर": 8095,
  "तीर्ण": 8096,
  " पड़ने": 8097,
  "फेक्ट": 8098,
  " भ्रमण": 8099,
  " हँसे": 8100,
  " बेरोजगार": 8101,
  " सम्बंधित": 8102,
  " धनराशि": 8103,
  " हान": 8104,
  "सले": 8105,
  " जोध": 8106,
  " कंक": 8107,
  "हारिक": 8108,
  " साइन": 8109,
  "शंकर": 8110,
  " पैदल": 8111,
  " साढ़े": 8112,
  " एनएफसी": 8113,
  " ट्रॉफी": 8114,
  " पंकज": 8115,
  " सामूहिक": 8116,
  "कने": 8117,
  "अर्": 8118,
  " ग्री": 8119,
  " खुली": 8120,
  " संक्र": 8121,
  " ४७": 8122,
  "्नि": 8123,
  " पढ़ें": 8124,
  " उठाते": 8125,
  "चलित": 8126,
  " चूक": 8127,
  " ५००००": 8128,
  "लैड": 8129,
  " क्वाड": 8130,
  " घों": 8131,
  " मोर": 8132,
  "लॉक": 8133,
  " दिखे": 8134,
  "ल्लू": 8135,
  " धारणा": 8136,
  " सुर्खियों": 8137,
  "मि": 8138,
  " कोय": 8139,
  "डीएस": 8140,
  "भावस्था": 8141,
  " यूट": 8142,
  " अवतार": 8143,
  " थोड़ा": 8144,
  " मार्केटिंग": 8145,
  " प्रसारण": 8146,
  " तेजस्वी": 8147,
  " ईमानदारी": 8148,
  " दोनो": 8149,
  " देहरादून": 8150,
  " पिल्ला": 8151,
  "प्लोमा": 8152,
  " &": 8153,
  "ण्ट": 8154,
  " टीमें": 8155,
  " कमिश्": 8156,
  " महंगा": 8157,
  " २००००": 8158,
  " इन्हीं": 8159,
  "्वाइंट": 8160,
  " सैकड़ों": 8161,
  " व्हाइट": 8162,
  " आवेदक": 8163,
  " शॉर्ट": 8164,
  " कुकीज़": 8165,
  " टहलने": 8166,
  " रोबोट": 8167,
  "ाव": 8168,
  "थो": 8169,
  "कार्ट": 8170,
  "्तर": 8171,
  "ग्स": 8172,
  " कोटा": 8173,
  " डाले": 8174,
  "डेजा": 8175,
  " जातक": 8176,
  " एरिया": 8177,
  " मारने": 8178,
  " एक्टिंग": 8179,
  " सर्जरी": 8180,
  " टुकड़ों": 8181,
  " मनमोहन": 8182,
  " पड़ोसी": 8183,
  " आयुर्वेद": 8184,
  " गैलेक्सी": 8185,
  " बोन": 8186,
  " बंट": 8187,
  "मेड": 8188,
  " बैठी": 8189,
  "टीआई": 8190,
  " आटा": 8191,
  " सिले": 8192,
  " नायक": 8193,
  " सम्मिल": 8194,
  "मर्श": 8195,
  " आतंकवाद": 8196,
  " जनजाति": 8197,
  " सर्टिफ": 8198,
  " डिस्काउंट": 8199,
  "हिया": 8200,
  " आचार": 8201,
  "रोक्त": 8202,
  " सैफ": 8203,
  " चौरा": 8204,
  " आइट": 8205,
  "यूवी": 8206,
  " टॉय": 8207,
  " आंकड़ा": 8208,
  "नेश्वर": 8209,
  " आरबीआई": 8210,
  " चकित": 8211,
  " अधिवक्ता": 8212,
  " राजकुमारी": 8213,
  " हार्मोन": 8214,
  "म्परा": 8215,
  " शॉट": 8216,
  " जोरदार": 8217,
  " पूर्ति": 8218,
  " गतिविधि": 8219,
  " महागठबंधन": 8220,
  " ™": 8221,
  " प्रय": 8222,
  "ोवा": 8223,
  " बिन": 8224,
  "ंगनी": 8225,
  "वाड़ी": 8226,
  " बेबी": 8227,
  " उधार": 8228,
  " तैयारियां": 8229,
  " एंज": 8230,
  " रसाय": 8231,
  "दुई": 8232,
  " मारुति": 8233,
  " चंडीगढ़": 8234,
  " महोत्सव": 8235,
  " शिमला": 8236,
  " भोग": 8237,
  " चाइ": 8238,
  " मानकों": 8239,
  " वॉल": 8240,
  " चौथा": 8241,
  " आरती": 8242,
  " बरत": 8243,
  " सेकेंड": 8244,
  " शासकीय": 8245,
  "कंपनी": 8246,
  " रिक्रूटमेन्ट": 8247,
  " आइसक्रीम": 8248,
  " जोधपुर": 8249,
  "डन": 8250,
  " लाते": 8251,
  "फिट": 8252,
  " सबूत": 8253,
  " कैंडी": 8254,
  "२०१९": 8255,
  " पाचन": 8256,
  " निर्धारण": 8257,
  " मलिक": 8258,
  " आईसीसी": 8259,
  " अहमदाबाद": 8260,
  " कारोबारी": 8261,
  " समृद्धि": 8262,
  " विंडोज": 8263,
  " स्विच": 8264,
  " पालतू": 8265,
  " राठ": 8266,
  "्रेन": 8267,
  " दीपा": 8268,
  " उत्तम": 8269,
  " प्रभावशाली": 8270,
  " त्वर": 8271,
  " सूखे": 8272,
  " आशीष": 8273,
  " ग्रंथ": 8274,
  " कैरियर": 8275,
  " गृ": 8276,
  "ण्य": 8277,
  "णिक": 8278,
  "ंगली": 8279,
  " चाहें": 8280,
  "मेरी": 8281,
  " मानने": 8282,
  " योजनाएं": 8283,
  " बोझ": 8284,
  " कपड़ा": 8285,
  " ढाई": 8286,
  " डबल": 8287,
  "टरीना": 8288,
  " 1५": 8289,
  "६६": 8290,
  " बताती": 8291,
  " मुद्र": 8292,
  " चिट": 8293,
  " आर्य": 8294,
  " निभाने": 8295,
  " किस्मत": 8296,
  " प्रेशर": 8297,
  " उत्तीर्ण": 8298,
  " उन्हे": 8299,
  " सबका": 8300,
  " मौली": 8301,
  "मेह": 8302,
  " पुरी": 8303,
  "लोत": 8304,
  " हेल्प": 8305,
  "बिज": 8306,
  " देवता": 8307,
  " संचालक": 8308,
  " मुखर्जी": 8309,
  " पाँच": 8310,
  " प्रदीप": 8311,
  " हराकर": 8312,
  " योगा": 8313,
  "संचार": 8314,
  "श्योरेंस": 8315,
  " बघेल": 8316,
  "ज्य": 8317,
  " रेश": 8318,
  " वाम": 8319,
  " दवाओं": 8320,
  " रेटिंग": 8321,
  " उलझ": 8322,
  " घंटा": 8323,
  " म्यूजिक": 8324,
  " अनुराग": 8325,
  " समन्वय": 8326,
  " परिणामस्वरूप": 8327,
  " कैप्टन": 8328,
  "णन": 8329,
  "ारक": 8330,
  " पों": 8331,
  " ज्व": 8332,
  "हेल": 8333,
  " टूर": 8334,
  " वोटर": 8335,
  " कृत": 8336,
  "भेद": 8337,
  " संस्थापक": 8338,
  " रांची": 8339,
  " कच्चे": 8340,
  " सेवानिव": 8341,
  "३१": 8342,
  "वाँ": 8343,
  " चुंब": 8344,
  "ोषित": 8345,
  " समर्थक": 8346,
  "िकॉन": 8347,
  " प्रतिभागियों": 8348,
  " क्विंटल": 8349,
  " जडेजा": 8350,
  "लभ": 8351,
  "नामा": 8352,
  " मात": 8353,
  " ताज": 8354,
  " चैम्प": 8355,
  "चिंता": 8356,
  " हैंडल": 8357,
  " सौंपी": 8358,
  "गेटिव": 8359,
  " अल्पसंख्यक": 8360,
  " आयुष्मान": 8361,
  "पता": 8362,
  " गंग": 8363,
  "नीत": 8364,
  "माह": 8365,
  " कमान": 8366,
  "दुल": 8367,
  "ूर्त": 8368,
  " महामंत्री": 8369,
  " रोगियों": 8370,
  "दुनिया": 8371,
  " ज़्यादा": 8372,
  " व्यंजन": 8373,
  "डि़": 8374,
  " वायरलेस": 8375,
  " सिलसिला": 8376,
  " जर्मनी": 8377,
  " बरसात": 8378,
  "पुलिस": 8379,
  " शत्रु": 8380,
  "िलर": 8381,
  " फिन": 8382,
  "सीए": 8383,
  " मेष": 8384,
  " बोर": 8385,
  " पेन": 8386,
  "िज्म": 8387,
  " शास्त्र": 8388,
  "ज्जा": 8389,
  " हँस": 8390,
  "्वालियर": 8391,
  " अर्धशत": 8392,
  " राक्षस": 8393,
  " कैलोरी": 8394,
  " स्वाभाविक": 8395,
  "शान": 8396,
  "टके": 8397,
  " घी": 8398,
  "तौर": 8399,
  "स्थल": 8400,
  " मदर": 8401,
  " यार्ड": 8402,
  " सेलि": 8403,
  " अटक": 8404,
  " वचन": 8405,
  " मीठा": 8406,
  " संशोधित": 8407,
  " सुशांत": 8408,
  " चुनौतियों": 8409,
  " सर्टिफिकेट": 8410,
  " जादुई": 8411,
  " त्वरित": 8412,
  "ज़ी": 8413,
  "ुश": 8414,
  "खने": 8415,
  "अभी": 8416,
  " घन": 8417,
  " तरल": 8418,
  "चाप": 8419,
  " सार्थ": 8420,
  " बाला": 8421,
  " तैयारियों": 8422,
  " मधुर": 8423,
  " सौदे": 8424,
  " विवादित": 8425,
  "कार्यक्रम": 8426,
  " नतीजा": 8427,
  " अर्थात्": 8428,
  " रत्न": 8429,
  " लिविंग": 8430,
  " अभियंता": 8431,
  " दोगु": 8432,
  " सम्मिलित": 8433,
  "जत": 8434,
  "४९": 8435,
  " परे": 8436,
  " असा": 8437,
  " ५६": 8438,
  " सैनी": 8439,
  " पाएगा": 8440,
  " एनर्जी": 8441,
  " उतरे": 8442,
  " सोनू": 8443,
  " हानि": 8444,
  " प्रतिष्ठा": 8445,
  " मायने": 8446,
  " जौहर": 8447,
  " हेक्टेयर": 8448,
  "ढ़ी": 8449,
  "न्ग": 8450,
  "नियों": 8451,
  " लेखा": 8452,
  " डां": 8453,
  " जाएँ": 8454,
  " कहें": 8455,
  " ५२": 8456,
  " ६७": 8457,
  " राखी": 8458,
  " रोज़": 8459,
  " जरूरतों": 8460,
  " रिपोर्ट्स": 8461,
  "प्रतिनि": 8462,
  " ग्रेजुए": 8463,
  "ंझ": 8464,
  " उपज": 8465,
  "ुलकर": 8466,
  " ।।": 8467,
  " पिट": 8468,
  " दशा": 8469,
  " लोड": 8470,
  " कपड़ों": 8471,
  " उद्योगों": 8472,
  " हॉकी": 8473,
  " आर्टियल": 8474,
  " दस्तावेजों": 8475,
  " लहराया": 8476,
  " महत्त्व": 8477,
  " पाण्डेय": 8478,
  " एजेंसियों": 8479,
  "३९": 8480,
  "्ढ": 8481,
  "गाई": 8482,
  "र्की": 8483,
  " मुसी": 8484,
  " पूल": 8485,
  " धमा": 8486,
  "विदेश": 8487,
  " दीर्": 8488,
  " अक्त": 8489,
  "मोर": 8490,
  " देखेंगे": 8491,
  " हेम": 8492,
  " एमपी": 8493,
  "िस्ट्री": 8494,
  " ट्रेंड": 8495,
  "फ्तर": 8496,
  " रंजन": 8497,
  " बंधन": 8498,
  " पुरूष": 8499,
  " यमुना": 8500,
  " फंसे": 8501,
  " व्यावहारिक": 8502,
  " परम्परा": 8503,
  "ूण": 8504,
  "ुगा": 8505,
  "गारी": 8506,
  " गोप": 8507,
  " मांगने": 8508,
  " जुड़ी": 8509,
  " निर्देशों": 8510,
  " टीचर": 8511,
  " २००७": 8512,
  " खोले": 8513,
  " भटक": 8514,
  "रीबन": 8515,
  " लौटने": 8516,
  " चिकित्सकों": 8517,
  " सुपरस्टार": 8518,
  "भूति": 8519,
  " मानसून": 8520,
  "वैधानिक": 8521,
  " पद्धति": 8522,
  "बाय": 8523,
  " बताएं": 8524,
  " सेक्शन": 8525,
  " चौंका": 8526,
  " वर्गों": 8527,
  "चुअल": 8528,
  " माइक्र": 8529,
  " गेम्स": 8530,
  " उपन्यास": 8531,
  " कुंडली": 8532,
  " असिस्टेंट": 8533,
  "धव": 8534,
  "वश": 8535,
  " पच": 8536,
  "सिया": 8537,
  "स्टल": 8538,
  " निदेश": 8539,
  " गढ़": 8540,
  " छीन": 8541,
  "बाग": 8542,
  "बच्च": 8543,
  "टाला": 8544,
  " पकड़े": 8545,
  " उद्यान": 8546,
  " बिहारी": 8547,
  " मुसलमानों": 8548,
  " वां": 8549,
  " बैन": 8550,
  "बीन": 8551,
  " मारे": 8552,
  "न्दगी": 8553,
  " प्यारे": 8554,
  " छुआ": 8555,
  "एनसी": 8556,
  " गर्दन": 8557,
  " अफवाह": 8558,
  " स्वयंसे": 8559,
  " पहाड़": 8560,
  " मेहता": 8561,
  " आकलन": 8562,
  " इंदिरा": 8563,
  " चैलेंज": 8564,
  " डिप्लोमा": 8565,
  "साल": 8566,
  " अरो": 8567,
  " फैन": 8568,
  " काशी": 8569,
  "ेशनल": 8570,
  "मोह": 8571,
  " पकड़ा": 8572,
  "सूत्रों": 8573,
  " कप्तानी": 8574,
  " आवंटन": 8575,
  " चिह्न": 8576,
  " त्यौ": 8577,
  " अकादमी": 8578,
  " रिश्तों": 8579,
  " लिहाजा": 8580,
  " इंश्योरेंस": 8581,
  "३८": 8582,
  " सक्": 8583,
  "सरण": 8584,
  " धोने": 8585,
  " तुम्हारी": 8586,
  " सिलेंडर": 8587,
  " निपट": 8588,
  " अंधेरे": 8589,
  " नजदीक": 8590,
  " भीड़": 8591,
  "ोगे": 8592,
  " नक्ष": 8593,
  " हिस": 8594,
  "ूरती": 8595,
  "जाना": 8596,
  "केंद्र": 8597,
  " निकली": 8598,
  " स्थितियों": 8599,
  " अर्पित": 8600,
  " सस्ती": 8601,
  " सांसदों": 8602,
  " केन्द्रों": 8603,
  " प्राइस": 8604,
  " मित्रों": 8605,
  "नेता": 8606,
  " चर्": 8607,
  "क्व": 8608,
  "खाव": 8609,
  "ईटी": 8610,
  "वीएम": 8611,
  " राजेंद्र": 8612,
  " मूल्यों": 8613,
  " अवकाश": 8614,
  " चैट": 8615,
  " काबू": 8616,
  " कमाने": 8617,
  " दिलाया": 8618,
  " ऑफिसर": 8619,
  " नारंगी": 8620,
  " मिठाई": 8621,
  " ॥": 8622,
  " जना": 8623,
  "साह": 8624,
  "कारियों": 8625,
  " रवी": 8626,
  " टर्म": 8627,
  "ंदर्य": 8628,
  " पढ़ना": 8629,
  " न्यूय": 8630,
  " खैर": 8631,
  " रजिस्टर": 8632,
  " एजेंट": 8633,
  " नकदी": 8634,
  " आगमन": 8635,
  "वायरस": 8636,
  "शैली": 8637,
  " पर्यटकों": 8638,
  "रप": 8639,
  " भीम": 8640,
  "फुल": 8641,
  "जहां": 8642,
  " प्लेटफार्म": 8643,
  " विनिर्माण": 8644,
  " केदारनाथ": 8645,
  " आइटम": 8646,
  " गों": 8647,
  " होश": 8648,
  " बाइ": 8649,
  "्मिक": 8650,
  " कहकर": 8651,
  "मड़ी": 8652,
  " इंफ": 8653,
  " परिचित": 8654,
  " उतारा": 8655,
  " साक्षी": 8656,
  " स्पेस": 8657,
  " लड़कियां": 8658,
  " पहुँचा": 8659,
  " वसूली": 8660,
  "तेश": 8661,
  "न्तर": 8662,
  " कैसी": 8663,
  " ५४": 8664,
  " करोड़ों": 8665,
  " बैनर": 8666,
  "वर्तमान": 8667,
  " लोकप्रियता": 8668,
  " संतुलित": 8669,
  " सरपंच": 8670,
  " ग्राउंड": 8671,
  "ासंगिक": 8672,
  " उजागर": 8673,
  "छात्राओं": 8674,
  " राफेल": 8675,
  " एकीकृत": 8676,
  " दफ्तर": 8677,
  " वय": 8678,
  " तंग": 8679,
  "लिन": 8680,
  " लकी": 8681,
  " नक्स": 8682,
  " मोटी": 8683,
  "मेरा": 8684,
  " एक्सर": 8685,
  " बगल": 8686,
  " मिनी": 8687,
  "ट्टे": 8688,
  "हरियाणा": 8689,
  " दर्शक": 8690,
  " प्रोसेस": 8691,
  " व्वे": 8692,
  " प्रदर्शनी": 8693,
  " जंगली": 8694,
  " रिलेशन": 8695,
  " निष्पक्ष": 8696,
  "प्लिकेशन": 8697,
  " गहलोत": 8698,
  " चौटाला": 8699,
  "लग": 8700,
  ",,": 8701,
  " जीने": 8702,
  "विजन": 8703,
  " पत्रों": 8704,
  " संयंत्र": 8705,
  "द्वितीय": 8706,
  " राजमार्ग": 8707,
  " विपणन": 8708,
  "कक्ष": 8709,
  "ामक": 8710,
  " वेद": 8711,
  "नोट": 8712,
  " चुनना": 8713,
  " आइड": 8714,
  " सुखद": 8715,
  "जियाबाद": 8716,
  " अछि": 8717,
  " त्यौहार": 8718,
  "ौज": 8719,
  "वित": 8720,
  "टिया": 8721,
  " नारी": 8722,
  "लीफ": 8723,
  "चुर": 8724,
  "ऊदी": 8725,
  " अनुप्र": 8726,
  "ॉल्ट": 8727,
  "स्ताना": 8728,
  "थुरा": 8729,
  " प्रेमी": 8730,
  " खड़े": 8731,
  " युवराज": 8732,
  " ज़ि": 8733,
  " रेड्डी": 8734,
  " प्रतिस्पर्धा": 8735,
  " भेदभाव": 8736,
  " जवाहर": 8737,
  " कन": 8738,
  " मृ": 8739,
  " कोण": 8740,
  "रीना": 8741,
  " राजन": 8742,
  "वाड़े": 8743,
  " सूखा": 8744,
  "मेडी": 8745,
  " जनस": 8746,
  " अद्य": 8747,
  " शीत": 8748,
  "शासन": 8749,
  " लहरा": 8750,
  " अमल": 8751,
  " सर्दी": 8752,
  "यूपी": 8753,
  " समीप": 8754,
  " पाये": 8755,
  " किराया": 8756,
  " प्रिंस": 8757,
  " कॉलोनी": 8758,
  " एफआईआर": 8759,
  "बैठक": 8760,
  " अग्नि": 8761,
  " एलुगा": 8762,
  " पड": 8763,
  "गड़": 8764,
  " रिव": 8765,
  "र्टी": 8766,
  " आसन": 8767,
  "जयपुर": 8768,
  " अंकित": 8769,
  " लंबाई": 8770,
  " पड़ेगा": 8771,
  " चतुर्थ": 8772,
  " बुमराह": 8773,
  " अगुवाई": 8774,
  " आला": 8775,
  " हकी": 8776,
  "्वरी": 8777,
  " सीए": 8778,
  " प्रोट": 8779,
  " कंस": 8780,
  "म्बा": 8781,
  "स्टोर": 8782,
  " ८५": 8783,
  "दर्शी": 8784,
  " पूर्वा": 8785,
  "ॉप्टर": 8786,
  " रॉयल": 8787,
  " सृजन": 8788,
  "६४": 8789,
  " टाल": 8790,
  "स्टन": 8791,
  " ६८": 8792,
  " व्यास": 8793,
  "ेंटाइन": 8794,
  " फिज": 8795,
  " व्याख्या": 8796,
  " सकेगी": 8797,
  " साहस": 8798,
  " फ्रेंड": 8799,
  " रमन": 8800,
  " एम्ब": 8801,
  " रजत": 8802,
  "्रपान": 8803,
  " नाकाम": 8804,
  " तोड़ने": 8805,
  "ालियों": 8806,
  " कार्यो": 8807,
  " पीजी": 8808,
  " नर्म": 8809,
  " कीड़े": 8810,
  "ुलेंस": 8811,
  " उतरी": 8812,
  "केंद्रीय": 8813,
  "दायी": 8814,
  " स्कूटर": 8815,
  " पूर्णिमा": 8816,
  " पर्सनल": 8817,
  " विविधता": 8818,
  " ससुर": 8819,
  " खनिज": 8820,
  "ांजलि": 8821,
  " सौंदर्य": 8822,
  "ाब": 8823,
  "भीत": 8824,
  " जैव": 8825,
  "िकासी": 8826,
  " पहुंचाई": 8827,
  " ६९": 8828,
  " असह": 8829,
  " आवेदकों": 8830,
  " इजाफा": 8831,
  " वरीय": 8832,
  " हरिद्वार": 8833,
  "रखाव": 8834,
  "अम": 8835,
  "क्से": 8836,
  " भला": 8837,
  " मैरी": 8838,
  "ुद्ध": 8839,
  " टेप": 8840,
  " बदलते": 8841,
  " खरीदना": 8842,
  "प्पो": 8843,
  " तुम्हारा": 8844,
  "जानकारी": 8845,
  " घटकर": 8846,
  "भाषित": 8847,
  " मालिक": 8848,
  " पृष्ठभूमि": 8849,
  "स्टेबल": 8850,
  " शिल्पा": 8851,
  " अड्डे": 8852,
  " पलायन": 8853,
  " शार": 8854,
  "्यूर": 8855,
  "धर्म": 8856,
  " स्विंग": 8857,
  " उंगल": 8858,
  " लिखना": 8859,
  " गिरी": 8860,
  " पट्टी": 8861,
  " पहनना": 8862,
  " बल्लेबाजों": 8863,
  " लक्षणों": 8864,
  " सत्यापन": 8865,
  "??": 8866,
  "चिक": 8867,
  "ंगों": 8868,
  " जोड़": 8869,
  " नहर": 8870,
  "स्फी": 8871,
  " लगाएं": 8872,
  " गियर": 8873,
  " भरत": 8874,
  " शीट": 8875,
  "ब्बे": 8876,
  " कृष": 8877,
  " ब्रश": 8878,
  " आरक्षित": 8879,
  " सलामी": 8880,
  " क्रांति": 8881,
  "शीलता": 8882,
  " पढ़ाई": 8883,
  " छक्के": 8884,
  " रस्सी": 8885,
  " अनियमित": 8886,
  " शत": 8887,
  " एले": 8888,
  "सीम": 8889,
  " कष्ट": 8890,
  "अधिक": 8891,
  " जुटे": 8892,
  " नॉन": 8893,
  " आएंगी": 8894,
  " दस्तक": 8895,
  " पंखों": 8896,
  " डाइट": 8897,
  " एकाद": 8898,
  " कृष्णा": 8899,
  "वनेश्वर": 8900,
  " छप": 8901,
  " चार्": 8902,
  " शेट": 8903,
  " नामों": 8904,
  " मोती": 8905,
  " आपोल": 8906,
  " लची": 8907,
  " सीधी": 8908,
  "पटना": 8909,
  " दिखती": 8910,
  " १०वीं": 8911,
  " आलोक": 8912,
  " पार्किंग": 8913,
  " डिप्टी": 8914,
  " अनुशासन": 8915,
  " इमारत": 8916,
  " मधुमक्खी": 8917,
  " इंजेक्शन": 8918,
  "वण": 8919,
  "\",": 8920,
  "रेख": 8921,
  "बेट": 8922,
  " आधी": 8923,
  "कतों": 8924,
  " इफोन": 8925,
  " अंजाम": 8926,
  " सम्पन्न": 8927,
  " दीवारों": 8928,
  " अजमेर": 8929,
  " गड़बड़": 8930,
  " एयरटेल": 8931,
  " डिलीवरी": 8932,
  "हू": 8933,
  "उड": 8934,
  " उड़": 8935,
  "ग्व": 8936,
  " उत्ते": 8937,
  " राइट": 8938,
  " स्तन": 8939,
  "शुभ": 8940,
  " सोसाय": 8941,
  " क्रीम": 8942,
  "जोरी": 8943,
  " अजीत": 8944,
  "रायपुर": 8945,
  " सिक्योर": 8946,
  " संलग्न": 8947,
  "ंकार": 8948,
  "धियों": 8949,
  "ल्दी": 8950,
  " सीटी": 8951,
  " दुब": 8952,
  " आसमान": 8953,
  "बेस": 8954,
  " बदलना": 8955,
  " ऑक्सी": 8956,
  "शियल": 8957,
  " सलाद": 8958,
  " विदेशों": 8959,
  " लौटे": 8960,
  " काउंटर": 8961,
  " नदियों": 8962,
  " लक्ष्मण": 8963,
  " नाजुक": 8964,
  " मूर्खतापूर्ण": 8965,
  " लड": 8966,
  "मिल": 8967,
  " शक": 8968,
  " राग": 8969,
  " अरे": 8970,
  "रांत": 8971,
  " आज़": 8972,
  "बुक": 8973,
  "िकरण": 8974,
  " जुटा": 8975,
  " फेस्ट": 8976,
  " तुमने": 8977,
  " कमांड": 8978,
  " रिलीज़": 8979,
  " अर्जित": 8980,
  "लेनोवो": 8981,
  " कम्प्यूटर": 8982,
  " दमदार": 8983,
  " मॉड्यूल": 8984,
  "लड़की": 8985,
  " सफलतापूर्वक": 8986,
  " बगैर": 8987,
  " प्रोफाइल": 8988,
  " शॉपिंग": 8989,
  "राक": 8990,
  "भोग": 8991,
  "रेखा": 8992,
  " टाई": 8993,
  " श्रा": 8994,
  " निवेशक": 8995,
  " अम्ब": 8996,
  " शिफ्ट": 8997,
  " क्वालिटी": 8998,
  "ानिस्तान": 8999,
  " संभालने": 9000,
  " भाग्यशाली": 9001,
  " दुर्भाग्य": 9002,
  "राष्ट्रपति": 9003,
  " नल": 9004,
  " नेहा": 9005,
  "लेश": 9006,
  " कोले": 9007,
  " संदि": 9008,
  "आईए": 9009,
  "आईपी": 9010,
  " वैध": 9011,
  "पश्च": 9012,
  "ग्रेड": 9013,
  " दिलाई": 9014,
  " प्रयोगशाला": 9015,
  " लटका": 9016,
  " पूरक": 9017,
  " व्हाट्स": 9018,
  " श्रीकृष्ण": 9019,
  " मौलिक": 9020,
  " हॉस्पिटल": 9021,
  " चैम्पियन": 9022,
  " एक्सरसाइज": 9023,
  "फु": 9024,
  "्रेसी": 9025,
  " राजे": 9026,
  "पर्स": 9027,
  " स्वप्": 9028,
  " भागने": 9029,
  " भारतीयों": 9030,
  " अर्चना": 9031,
  " मेडल": 9032,
  " फोर्स": 9033,
  " ड्राइविंग": 9034,
  "दृश्य": 9035,
  " शर्तों": 9036,
  " संदिग्ध": 9037,
  " मय": 9038,
  " पठ": 9039,
  "रक्षा": 9040,
  " ५३": 9041,
  "निकल": 9042,
  " नाबाद": 9043,
  " पैसों": 9044,
  " गीला": 9045,
  "बैंक": 9046,
  " नकली": 9047,
  "नायक": 9048,
  " सपनों": 9049,
  " डरावना": 9050,
  "तिया": 9051,
  " सिख": 9052,
  " डाइ": 9053,
  "जीबी": 9054,
  " वादे": 9055,
  " गाड़ी": 9056,
  " २५०": 9057,
  " ०१": 9058,
  " डेविड": 9059,
  "वृत्ति": 9060,
  " हवाला": 9061,
  " अंधेरा": 9062,
  " मेरिट": 9063,
  " आईएएस": 9064,
  " दुल्हन": 9065,
  " बोनस": 9066,
  " नग": 9067,
  " शिल": 9068,
  " स्ने": 9069,
  "पत्": 9070,
  " सिरे": 9071,
  "दाद": 9072,
  " कड़ा": 9073,
  "पकों": 9074,
  " डिस्ट": 9075,
  " ऊँ": 9076,
  " सोचती": 9077,
  " तीर": 9078,
  " अफग": 9079,
  " वसु": 9080,
  " फैन्स": 9081,
  " क्रोधित": 9082,
  " शौक": 9083,
  " ऑडियो": 9084,
  " मुम्बई": 9085,
  " अनुसरण": 9086,
  "ैट": 9087,
  " जहा": 9088,
  " हमसे": 9089,
  " फर्म": 9090,
  " रुपया": 9091,
  "ियर्स": 9092,
  "सीएम": 9093,
  "उम्मीद": 9094,
  " बॉय": 9095,
  " राज्यमंत्री": 9096,
  " बहाल": 9097,
  " उपायों": 9098,
  " स्पीकर": 9099,
  " लड़कियां": 9100,
  " रोमांटिक": 9101,
  " सब्सिडी": 9102,
  " कमिश्नर": 9103,
  " कमजोरी": 9104,
  "७६": 9105,
  "झी": 9106,
  "नाई": 9107,
  "विन": 9108,
  " हनी": 9109,
  "ौनी": 9110,
  "सीना": 9111,
  "विर": 9112,
  " नमी": 9113,
  "विद": 9114,
  "बात": 9115,
  "याबी": 9116,
  " ड्रा": 9117,
  " स्मार": 9118,
  " इंकार": 9119,
  " बचें": 9120,
  " क्यो": 9121,
  " खुलकर": 9122,
  " अंदाजा": 9123,
  " स्कूली": 9124,
  " फर्स्ट": 9125,
  " बाधित": 9126,
  " फ्रेंच": 9127,
  " अज्ञात": 9128,
  " तकरीबन": 9129,
  " कना": 9130,
  "ल्हा": 9131,
  "ंटा": 9132,
  " ५८": 9133,
  " पूछने": 9134,
  " मील": 9135,
  " चश्म": 9136,
  " गेंदबाजों": 9137,
  " संयोजन": 9138,
  "कांक्षा": 9139,
  " प्रीमियर": 9140,
  " डोनाल्ड": 9141,
  " गर्भावस्था": 9142,
  " अक्तूबर": 9143,
  " खूबसूरती": 9144,
  "४८": 9145,
  " >": 9146,
  " इर": 9147,
  " तारा": 9148,
  " यथा": 9149,
  " इनको": 9150,
  " सामु": 9151,
  " हाज": 9152,
  " परीक्ष": 9153,
  "ुणा": 9154,
  " असाम": 9155,
  " क्ले": 9156,
  " ट्रम्प": 9157,
  "बर्ग": 9158,
  " महानि": 9159,
  " सिल्वर": 9160,
  "ोदय": 9161,
  " आर्मी": 9162,
  " कार्बन": 9163,
  " अस्थायी": 9164,
  " फोटोग्रा": 9165,
  " फ्रेम": 9166,
  " करबोन": 9167,
  "िपकार्ट": 9168,
  " कोष": 9169,
  " एकड़": 9170,
  "थाम": 9171,
  " एल्": 9172,
  "कोल": 9173,
  " स्वे": 9174,
  "मानत": 9175,
  " अगला": 9176,
  " एम्स": 9177,
  " सूरत": 9178,
  "स्थापित": 9179,
  " प्लग": 9180,
  " शिकायतों": 9181,
  "ौलत": 9182,
  " टिप्स": 9183,
  " इंग्लिश": 9184,
  " एंटर": 9185,
  " परिभाषित": 9186,
  "टॉ": 9187,
  "३६": 9188,
  "वॉ": 9189,
  " सड": 9190,
  "सेन": 9191,
  " डिस": 9192,
  " छोड़ना": 9193,
  " 1६": 9194,
  " विरासत": 9195,
  "महारा": 9196,
  "ारायण": 9197,
  " निलंबित": 9198,
  " उंगली": 9199,
  " जनप्रतिनि": 9200,
  " निकासी": 9201,
  "हद": 9202,
  "ैव": 9203,
  "षी": 9204,
  " नक्": 9205,
  " प्म": 9206,
  " स्किन": 9207,
  " शुगर": 9208,
  "ष्ठी": 9209,
  " ठहरा": 9210,
  "िविटी": 9211,
  " बढ़ने": 9212,
  "सायनिक": 9213,
  "तांत्रिक": 9214,
  "०५": 9215,
  "ोंक": 9216,
  " किम": 9217,
  " परत": 9218,
  " जरा": 9219,
  " मले": 9220,
  " मल्": 9221,
  "जीन": 9222,
  " कमरा": 9223,
  " आक्र": 9224,
  " आएं": 9225,
  " अनुमो": 9226,
  "हरहाल": 9227,
  " निरस्त": 9228,
  " सूचीबद्ध": 9229,
  " टकरा": 9230,
  " इक्वि": 9231,
  " बैंगनी": 9232,
  "छित": 9233,
  "ूला": 9234,
  " वाल्व": 9235,
  "मीर": 9236,
  " सद्": 9237,
  " प्रतिक": 9238,
  "मंगल": 9239,
  " आईफोन": 9240,
  " बलि": 9241,
  " स्नो": 9242,
  " मूड": 9243,
  " वोटों": 9244,
  " बिलासपुर": 9245,
  " जरूरतमंद": 9246,
  " साजिश": 9247,
  "स्फीति": 9248,
  "ियाना": 9249,
  " राउ": 9250,
  " रुझ": 9251,
  " दुः": 9252,
  " चाहेंगे": 9253,
  " भगत": 9254,
  " छाती": 9255,
  " पद्म": 9256,
  " चर्च": 9257,
  "ल्चर": 9258,
  "्वीप": 9259,
  "यमूर्ति": 9260,
  " स्ट्रीट": 9261,
  " ऑपरेटर": 9262,
  " प्रासंगिक": 9263,
  "श्र": 9264,
  " सेन": 9265,
  "तुर": 9266,
  " क्री": 9267,
  " शमी": 9268,
  " कार्यकार": 9269,
  " सुचार": 9270,
  " आयर": 9271,
  " अन्न": 9272,
  "झाने": 9273,
  " जिनसे": 9274,
  " एससी": 9275,
  " चलाई": 9276,
  " किसने": 9277,
  " फेर": 9278,
  " कर्मी": 9279,
  " तत्पर": 9280,
  " पर्वत": 9281,
  " नशे": 9282,
  "लाइका": 9283,
  " रिक्तियों": 9284,
  " मुआव": 9285,
  "ोसॉफ्ट": 9286,
  " एसयूवी": 9287,
  "ुए": 9288,
  "ारू": 9289,
  " सरा": 9290,
  " परिश": 9291,
  " प्रवी": 9292,
  "श्यप": 9293,
  " फेड": 9294,
  " साधा": 9295,
  " वैसा": 9296,
  "आपने": 9297,
  " नरेश": 9298,
  " दिखते": 9299,
  "अंदा": 9300,
  " फील्ड": 9301,
  "बूतर": 9302,
  " अंगू": 9303,
  " लैब": 9304,
  " प्रतिद्व": 9305,
  " आस्ट्रेलिया": 9306,
  " उपायुक्त": 9307,
  " प्रोडक्शन": 9308,
  " तैनाती": 9309,
  " सर्दियों": 9310,
  " स्थिरता": 9311,
  " सब्जियां": 9312,
  " नायडू": 9313,
  " क्रियान्वयन": 9314,
  " रम": 9315,
  " गेल": 9316,
  "ाइज": 9317,
  " खाई": 9318,
  " पिच": 9319,
  " बर्थ": 9320,
  " पंक्ति": 9321,
  " शांतिपूर्ण": 9322,
  " कबीर": 9323,
  " मजाकिया": 9324,
  " बुखार": 9325,
  " ढांचे": 9326,
  " मोमब": 9327,
  " सार्थक": 9328,
  " शेट्टी": 9329,
  " बृ": 9330,
  " रिए": 9331,
  " प्रिया": 9332,
  " नाइ": 9333,
  " मिलन": 9334,
  "द्धा": 9335,
  "डीसी": 9336,
  " ५९": 9337,
  " एनएस": 9338,
  " आश्व": 9339,
  " अंतराल": 9340,
  " लिखते": 9341,
  " कहानियां": 9342,
  " मेजबान": 9343,
  "ऑन": 9344,
  " आड": 9345,
  "वाइ": 9346,
  "फली": 9347,
  " प्राण": 9348,
  "गोर": 9349,
  " छोर": 9350,
  " यूं": 9351,
  " विशेषताओं": 9352,
  " बॉबी": 9353,
  " सोचना": 9354,
  "एनजी": 9355,
  " लौटा": 9356,
  "हेज": 9357,
  " किंतु": 9358,
  " उतरने": 9359,
  " लाभदायक": 9360,
  " कहानियों": 9361,
  "पटॉप": 9362,
  " गरम": 9363,
  "अमेरिका": 9364,
  " खिलाड़ियों": 9365,
  " शराबी": 9366,
  "ंठ": 9367,
  "खिल": 9368,
  " बड़": 9369,
  "कार्य": 9370,
  "क्टी": 9371,
  " बेड": 9372,
  " क्षण": 9373,
  " भागते": 9374,
  " प्राणी": 9375,
  "ोपण": 9376,
  "स्त्रों": 9377,
  " किताबों": 9378,
  " टाइम्स": 9379,
  " बिल्डिंग": 9380,
  " सिखाया": 9381,
  " सौभाग्य": 9382,
  " दीपावली": 9383,
  " मुसीबत": 9384,
  " बेरोजगारी": 9385,
  " हकीकत": 9386,
  "ैम": 9387,
  " बख": 9388,
  " एट": 9389,
  " परमा": 9390,
  " जानिए": 9391,
  " ६६": 9392,
  " बराम": 9393,
  " गिफ्ट": 9394,
  "साथी": 9395,
  " हसन": 9396,
  "फरत": 9397,
  " निरीक्षक": 9398,
  " बेल्ट": 9399,
  "बिटीज": 9400,
  " हादसे": 9401,
  "कहानी": 9402,
  "३४": 9403,
  " जाट": 9404,
  " विस": 9405,
  "्वित": 9406,
  " कांस": 9407,
  " सरदार": 9408,
  "मपुर": 9409,
  "हत्या": 9410,
  "अभि": 9411,
  " बालिका": 9412,
  "जुकी": 9413,
  " ऊंचा": 9414,
  " प्राचार्य": 9415,
  " आनन्द": 9416,
  " परिस्थिति": 9417,
  " बूढ़े": 9418,
  " नितिन": 9419,
  " दोस्ताना": 9420,
  " सोसायटी": 9421,
  "मय": 9422,
  "नए": 9423,
  "०९": 9424,
  " रौ": 9425,
  " साय": 9426,
  "िनो": 9427,
  "कांग": 9428,
  "बानी": 9429,
  " किशन": 9430,
  " अंस": 9431,
  " आईसी": 9432,
  " रखेंगे": 9433,
  "ांतिक": 9434,
  " स्वराज": 9435,
  " गणतंत्र": 9436,
  " समाप्ति": 9437,
  "शेखर": 9438,
  " चरम": 9439,
  " पासवर्ड": 9440,
  " मंजिल": 9441,
  " श्रद्धालु": 9442,
  " डिपार्टमेंट": 9443,
  " नीरज": 9444,
  " अधिग्रहण": 9445,
  " शिरकत": 9446,
  " ध्रु": 9447,
  " जदयू": 9448,
  " दक्षता": 9449,
  " दुर्लभ": 9450,
  "तेह": 9451,
  " तले": 9452,
  " ७८": 9453,
  " डाक्टर": 9454,
  "0000": 9455,
  "ोत्तर": 9456,
  " लंबित": 9457,
  " विनय": 9458,
  " पलट": 9459,
  "ल्शियम": 9460,
  " नक्षत्र": 9461,
  "ोश": 9462,
  "ॉफ": 9463,
  "२0": 9464,
  " काे": 9465,
  "मंड": 9466,
  "उल्": 9467,
  "विव": 9468,
  " पीपी": 9469,
  " बांस": 9470,
  "ओएस": 9471,
  " अपनाने": 9472,
  "ेशनों": 9473,
  " उठता": 9474,
  "स्थिति": 9475,
  " अनिश्चित": 9476,
  " छापे": 9477,
  " मातृ": 9478,
  " हॉलीवुड": 9479,
  " गिलास": 9480,
  " तहसीलदार": 9481,
  " हंसी": 9482,
  " दर्शाता": 9483,
  " वास्तु": 9484,
  " परिवर्तित": 9485,
  " शरार": 9486,
  "मायण": 9487,
  " परिचालन": 9488,
  " कैटरीना": 9489,
  " धूम्रपान": 9490,
  " कामयाबी": 9491,
  " बदौलत": 9492,
  " औरत": 9493,
  " बाघ": 9494,
  "षमा": 9495,
  " अनू": 9496,
  " उदा": 9497,
  " पीट": 9498,
  " टीका": 9499,
  "योजना": 9500,
  " बनेंगे": 9501,
  "दूरी": 9502,
  " फ्लोर": 9503,
  " जोड़ें": 9504,
  " अहसास": 9505,
  " सैंडविच": 9506,
  " सख्ती": 9507,
  " रसायन": 9508,
  "नौ": 9509,
  " जोश": 9510,
  "प्ला": 9511,
  "नामी": 9512,
  "विचार": 9513,
  " छाप": 9514,
  " रैंक": 9515,
  " गिरकर": 9516,
  " स्पेन": 9517,
  "ज़रूर": 9518,
  " पहलुओं": 9519,
  " हरीश": 9520,
  " अभिव्यक्ति": 9521,
  "िकारक": 9522,
  " अद्यतन": 9523,
  " मुद्रास्फीति": 9524,
  " नफरत": 9525,
  "लत": 9526,
  " शिप": 9527,
  "हमने": 9528,
  " खड़ा": 9529,
  " खण्ड": 9530,
  " थोड़ी": 9531,
  " बढ़ती": 9532,
  " बस्ती": 9533,
  " पेट्रोलियम": 9534,
  " पहलवान": 9535,
  " बजाए": 9536,
  " दशकों": 9537,
  " कोविंद": 9538,
  " अंततः": 9539,
  " सबकुछ": 9540,
  " जायसवाल": 9541,
  " कचरा": 9542,
  " पांड्या": 9543,
  " एडमिशन": 9544,
  "शिंगटन": 9545,
  " इंस्पेक्टर": 9546,
  " दंड": 9547,
  " बीस": 9548,
  "मान्य": 9549,
  " बिछ": 9550,
  " छोड़ा": 9551,
  " रिम": 9552,
  " स्पिन": 9553,
  " ५०००": 9554,
  " महाप": 9555,
  " २००४": 9556,
  " देवेंद्र": 9557,
  " पांचवें": 9558,
  " प्रशिक्षित": 9559,
  "गुण": 9560,
  " ब्लॉकों": 9561,
  " तालमेल": 9562,
  " इन्वेस्ट": 9563,
  " स्टार्स": 9564,
  " मधुमेह": 9565,
  " गाजियाबाद": 9566,
  "६८": 9567,
  "नाग": 9568,
  "खिक": 9569,
  " यंत्र": 9570,
  " निस्त": 9571,
  "जीपी": 9572,
  "पीड़": 9573,
  " मीन": 9574,
  "वंत": 9575,
  "स्पर": 9576,
  "पाली": 9577,
  " पासवान": 9578,
  " विवादों": 9579,
  " हल्दी": 9580,
  " निराकरण": 9581,
  " अन्दर": 9582,
  " लेनदेन": 9583,
  " इकाइयों": 9584,
  " फ्लाइट": 9585,
  " कठिनाई": 9586,
  " वाजपेयी": 9587,
  " इमेज": 9588,
  " दीर्घ": 9589,
  " कार्ट": 9590,
  " बिर": 9591,
  "वीस": 9592,
  " टूल": 9593,
  "ग्ल": 9594,
  " पीना": 9595,
  " हार्ट": 9596,
  " सुप्र": 9597,
  " डोर": 9598,
  "मेगा": 9599,
  " रोते": 9600,
  " पड़ी": 9601,
  " तबाद": 9602,
  " दुकानदार": 9603,
  " तलाशने": 9604,
  " आलम": 9605,
  " रोचक": 9606,
  "इंटर": 9607,
  " चट्टानों": 9608,
  " कोशिकाओं": 9609,
  " उत्तराखण्ड": 9610,
  "स्कोप": 9611,
  "स्तरीय": 9612,
  " किंग्स": 9613,
  " धकेल": 9614,
  " सैलरी": 9615,
  " प्वाइंट": 9616,
  " खासतौर": 9617,
  " सऊदी": 9618,
  " नर्मदा": 9619,
  " श्रद्धांजलि": 9620,
  "0१": 9621,
  " उभ": 9622,
  " पोट": 9623,
  " कैद": 9624,
  " यज्ञ": 9625,
  " लेंस": 9626,
  " एक्सट": 9627,
  " शोभा": 9628,
  " इनकम": 9629,
  " दूंगा": 9630,
  " बुलेट": 9631,
  "िंटन": 9632,
  " वोटिंग": 9633,
  " टॉस": 9634,
  " प्रमाणित": 9635,
  " एडिशन": 9636,
  " वंश": 9637,
  " आईआईटी": 9638,
  " अतीत": 9639,
  " डिमांड": 9640,
  " मजिस्ट्रेट": 9641,
  " यूट्यूब": 9642,
  " लोमड़ी": 9643,
  "नीश": 9644,
  " टेल": 9645,
  " सदी": 9646,
  " अंध": 9647,
  " विक्र": 9648,
  " फिल्मी": 9649,
  " सिग्": 9650,
  "यॉन": 9651,
  " पॉवर": 9652,
  " इमाम": 9653,
  "दर्शिता": 9654,
  " कैलेंडर": 9655,
  " नमूना": 9656,
  " फैमिली": 9657,
  " पुण्य": 9658,
  " रासायनिक": 9659,
  "राइ": 9660,
  " निः": 9661,
  " दिखाए": 9662,
  " डॉट": 9663,
  "मुख्य": 9664,
  " सौदा": 9665,
  "एनएन": 9666,
  " बचाया": 9667,
  " प्लेस": 9668,
  " त्रिप": 9669,
  " तौल": 9670,
  "लेखनीय": 9671,
  " पर्यवे": 9672,
  "द्यपि": 9673,
  " कसकर": 9674,
  "दाश्त": 9675,
  " एप्लिकेशन": 9676,
  " अनुप्रयोग": 9677,
  " कॉमेडी": 9678,
  " किले": 9679,
  "्यूम": 9680,
  " चलिए": 9681,
  " अनुभाग": 9682,
  " चौड़ा": 9683,
  "उनकी": 9684,
  " दिवाली": 9685,
  " लक्ष्यों": 9686,
  " पहलू": 9687,
  " मशीनों": 9688,
  " सुधारने": 9689,
  " हड्ड": 9690,
  " वस्त्र": 9691,
  " संग्रहालय": 9692,
  " विलय": 9693,
  "लाइव": 9694,
  " स्टेज": 9695,
  " प्रैक्ट": 9696,
  " ईवीएम": 9697,
  " क्रेयॉन": 9698,
  "खल": 9699,
  "/-": 9700,
  "जाब": 9701,
  " जब्त": 9702,
  " पेड": 9703,
  " शिक्षित": 9704,
  "र्नर": 9705,
  "पूर्ति": 9706,
  " एलर्जी": 9707,
  " समानता": 9708,
  "ियारों": 9709,
  " प्रतीत": 9710,
  "कौन": 9711,
  "ानुसार": 9712,
  "ब्रेरी": 9713,
  " उपरोक्त": 9714,
  " तकलीफ": 9715,
  " भुवनेश्वर": 9716,
  " रोकथाम": 9717,
  " कार्यकारिणी": 9718,
  "शर": 9719,
  " हड़": 9720,
  " किसे": 9721,
  " तोड़": 9722,
  "भाई": 9723,
  " चलकर": 9724,
  "न्धी": 9725,
  " कुलपति": 9726,
  " उमेश": 9727,
  "तिथि": 9728,
  " पंजाबी": 9729,
  " नारियल": 9730,
  " जागरण": 9731,
  " महिंद": 9732,
  " अभिभावकों": 9733,
  "उल्लेखनीय": 9734,
  "शित": 9735,
  " नंद": 9736,
  "ेली": 9737,
  " सबकी": 9738,
  " खाएं": 9739,
  " निदान": 9740,
  "कुट": 9741,
  " सचिवालय": 9742,
  "प्रथम": 9743,
  " क्रॉस": 9744,
  "नाइटेड": 9745,
  " मनोवैज्ञानिक": 9746,
  " कर्तव्य": 9747,
  " रखरखाव": 9748,
  "८५": 9749,
  " यथ": 9750,
  " पिया": 9751,
  " मुहर": 9752,
  "पार्ट": 9753,
  " बर्ड": 9754,
  " मीना": 9755,
  "श्चिक": 9756,
  " खोली": 9757,
  " लपेट": 9758,
  "बिलिटी": 9759,
  "धनुष": 9760,
  " तालिका": 9761,
  "कानेर": 9762,
  " अन्तर": 9763,
  " द्विवेदी": 9764,
  " मतभेद": 9765,
  " इजाजत": 9766,
  " अद्वितीय": 9767,
  " लैपटॉप": 9768,
  " आत्महत्या": 9769,
  " हानिकारक": 9770,
  " महिंद्रा": 9771,
  "कन": 9772,
  "६२": 9773,
  "सीमा": 9774,
  " सुग": 9775,
  "िगर": 9776,
  " चेन": 9777,
  "स्टाइल": 9778,
  " डीसी": 9779,
  " स्टॉप": 9780,
  " राजनाथ": 9781,
  "राबरी": 9782,
  " सातवें": 9783,
  " प्रमाणपत्र": 9784,
  " फैलाने": 9785,
  " पूर्वानु": 9786,
  " हवाले": 9787,
  "विशेष": 9788,
  "बेशक": 9789,
  " साथियों": 9790,
  " बाएं": 9791,
  " पाली": 9792,
  "आईएस": 9793,
  " होंठ": 9794,
  "म्बे": 9795,
  "नात्मक": 9796,
  " खन्ना": 9797,
  " झुका": 9798,
  "प्लीकेशन": 9799,
  " हिंदुस्तान": 9800,
  " असंभव": 9801,
  " सुजुकी": 9802,
  "टकी": 9803,
  "जली": 9804,
  "ायन": 9805,
  " जीती": 9806,
  "मुक्त": 9807,
  " आहत": 9808,
  "क्रमण": 9809,
  " दिखाता": 9810,
  " चलाते": 9811,
  "घरों": 9812,
  " २००६": 9813,
  " सुंदरता": 9814,
  " भूषण": 9815,
  " सदस्यीय": 9816,
  " पर्यटक": 9817,
  " शर्मि": 9818,
  " दिलचस्पी": 9819,
  " प्रयाग": 9820,
  " एन्": 9821,
  "िनल": 9822,
  " नेत्र": 9823,
  " नाच": 9824,
  "प्रेस": 9825,
  " शरण": 9826,
  " जनसभा": 9827,
  "चर्या": 9828,
  "बीजेपी": 9829,
  " एलान": 9830,
  " लुढ़": 9831,
  " सुविधाजनक": 9832,
  " नतीजों": 9833,
  " सृष्टि": 9834,
  " विंडो": 9835,
  " महत्वा": 9836,
  " मक्खन": 9837,
  " गुर्जर": 9838,
  " परिदृश्य": 9839,
  " असामान्य": 9840,
  " कबूतर": 9841,
  ".)": 9842,
  " रहस": 9843,
  " होस्ट": 9844,
  " बनवा": 9845,
  " स्किल": 9846,
  " बलों": 9847,
  "यहाँ": 9848,
  " संज्ञान": 9849,
  " दोहरी": 9850,
  "मोबाइल": 9851,
  " भ्रम": 9852,
  " साइबर": 9853,
  "दूसरी": 9854,
  " नींव": 9855,
  "र्दू": 9856,
  "साइकिल": 9857,
  " नागपुर": 9858,
  " ठेकेदार": 9859,
  " म्त६७": 9860,
  "नेक्स्ट": 9861,
  " प्रोड्यूस": 9862,
  " व्हील": 9863,
  " संवैधानिक": 9864,
  " न्यूयॉर्क": 9865,
  " कार्मिक": 9866,
  " कटरीना": 9867,
  " कश्यप": 9868,
  " कांस्य": 9869,
  "ूज": 9870,
  " मक": 9871,
  " कीट": 9872,
  " साफ़": 9873,
  "बिया": 9874,
  "रां": 9875,
  "एसी": 9876,
  "निंग": 9877,
  " निवार": 9878,
  "रिप": 9879,
  " परेड": 9880,
  "आईएम": 9881,
  " मौर्य": 9882,
  " प्रबल": 9883,
  "मोरी": 9884,
  "ण्डा": 9885,
  " निश्च": 9886,
  " खींचने": 9887,
  " गाँधी": 9888,
  " चिकित्सालय": 9889,
  " शीतल": 9890,
  " पतंग": 9891,
  " टेलीफोन": 9892,
  " मथुरा": 9893,
  " कांग्रेसी": 9894,
  " सामुदायिक": 9895,
  " जर्": 9896,
  " पान": 9897,
  "न्हे": 9898,
  "खाने": 9899,
  "दीश": 9900,
  " इनसे": 9901,
  " हिना": 9902,
  "रिज": 9903,
  " गर्ग": 9904,
  " बहि": 9905,
  " महानगर": 9906,
  " स्टेन": 9907,
  " बजाई": 9908,
  " सम्पर्क": 9909,
  " दीजिए": 9910,
  " सिक्का": 9911,
  " फ्लैट": 9912,
  " अकाली": 9913,
  " एकत्रित": 9914,
  "बरेली": 9915,
  " ग्वालियर": 9916,
  " जीवनसाथी": 9917,
  " स्टेशनों": 9918,
  "४२": 9919,
  "थान": 9920,
  " पिन": 9921,
  " पीली": 9922,
  "पेड": 9923,
  " स्पे": 9924,
  " समझाने": 9925,
  "नयी": 9926,
  " शीर्षक": 9927,
  " दौड़": 9928,
  " क्वार्ट": 9929,
  " कराते": 9930,
  "थरूम": 9931,
  "टेगरी": 9932,
  " सर्किट": 9933,
  " डेवलपमेंट": 9934,
  " अर्धशतक": 9935,
  " न्यायमूर्ति": 9936,
  " कैल्शियम": 9937,
  "इए": 9938,
  "तिर": 9939,
  " सीबी": 9940,
  " ८००": 9941,
  "गमेंट": 9942,
  "आपकी": 9943,
  " सर्वि": 9944,
  "हिन्दी": 9945,
  " दुकानें": 9946,
  " दक्षिणी": 9947,
  "ृत्त": 9948,
  " चहल": 9949,
  "छाड़": 9950,
  " विमानों": 9951,
  " छुट्ट": 9952,
  " पेंटिंग": 9953,
  " विरू": 9954,
  "इयां": 9955,
  " दबंग": 9956,
  " फरीदाबाद": 9957,
  " यहोवा": 9958,
  " जुड़वाँ": 9959,
  "६९": 9960,
  " काॅ": 9961,
  " मारी": 9962,
  "किम": 9963,
  " मैथ": 9964,
  " गुड": 9965,
  " गहन": 9966,
  " असंत": 9967,
  " मंदी": 9968,
  " कराकर": 9969,
  " स्नात": 9970,
  " मिनटों": 9971,
  " रहेंगी": 9972,
  "पक्षी": 9973,
  "बामा": 9974,
  " स्टूडेंट": 9975,
  " प्रमोद": 9976,
  " बेंगलुरु": 9977,
  " पूर्वानुमान": 9978,
  " तन": 9979,
  " साँ": 9980,
  " टच": 9981,
  "िवल": 9982,
  "सीबी": 9983,
  " इम्": 9984,
  " ग्रस्त": 9985,
  " महाप्र": 9986,
  "विन्द": 9987,
  " महीना": 9988,
  " कॉम्प": 9989,
  " शैल": 9990,
  " दुनियाभर": 9991,
  " जैकेट": 9992,
  "ंख्य": 9993,
  " बिलियन": 9994,
  " गर्मियों": 9995,
  "कियाँ": 9996,
  " घेर": 9997,
  "कैप": 9998,
  " ऑयल": 9999,
  " प्रसारित": 10000,
  " वाकई": 10001,
  " टेलीविजन": 10002,
  "५३": 10003,
  "माया": 10004,
  "धारित": 10005,
  " पुत": 10006,
  " १२५": 10007,
  " पकड़": 10008,
  " नोटों": 10009,
  "स्ट्रॉल": 10010,
  " ग्रहों": 10011,
  "स्वास्थ्य": 10012,
  " किराए": 10013,
  " रामलीला": 10014,
  " प्रकोप": 10015,
  " आश्वस्त": 10016,
  " भंग": 10017,
  " जीवा": 10018,
  "हिट": 10019,
  " ५७": 10020,
  " खुदरा": 10021,
  " कार्यालयों": 10022,
  " ओवरों": 10023,
  " पुस्तकालय": 10024,
  " मोटे": 10025,
  " पॉइंट": 10026,
  " चपेट": 10027,
  "पुरुष": 10028,
  " छुपा": 10029,
  " आराध्य": 10030,
  " सदैव": 10031,
  "इं": 10032,
  " द्": 10033,
  " भै": 10034,
  "ंती": 10035,
  "१००": 10036,
  " लाए": 10037,
  " वोल": 10038,
  "रोला": 10039,
  "बड़े": 10040,
  " लीं": 10041,
  " फ़ो": 10042,
  " कटा": 10043,
  " पदो": 10044,
  " कतार": 10045,
  " प्यारी": 10046,
  " लाभकारी": 10047,
  " प्रसं": 10048,
  " उठाकर": 10049,
  "राउंड": 10050,
  " निर्दिष्ट": 10051,
  "२०१६": 10052,
  " ब्लाग": 10053,
  " खांसी": 10054,
  " बेशक": 10055,
  " विक्रेता": 10056,
  " गोपनीय": 10057,
  " एप्लीकेशन": 10058,
  "ओल": 10059,
  " कीच": 10060,
  " फट": 10061,
  "ड़के": 10062,
  "सरे": 10063,
  "िएटर": 10064,
  " विवि": 10065,
  " कारगर": 10066,
  " शंक": 10067,
  "ूबी": 10068,
  " इंटी": 10069,
  " १२०": 10070,
  "मिति": 10071,
  " बनेगी": 10072,
  " व्यापारिक": 10073,
  " बहू": 10074,
  " रूचि": 10075,
  " मंजूर": 10076,
  " मेरठ": 10077,
  " मुनाफा": 10078,
  " खजाना": 10079,
  " फ्लिपकार्ट": 10080,
  "८८": 10081,
  "%)": 10082,
  " देह": 10083,
  "रेड": 10084,
  " मैके": 10085,
  " बेकार": 10086,
  " शोक": 10087,
  "िलीप": 10088,
  " सप्त": 10089,
  "कार्ड": 10090,
  " चीज़": 10091,
  "निटी": 10092,
  "ख्यात": 10093,
  "फ़ी": 10094,
  " चढ़ा": 10095,
  " शाखाओं": 10096,
  " राजेन्द्र": 10097,
  "लोकसभा": 10098,
  " सीसीटीवी": 10099,
  " पुस्तकों": 10100,
  " लिटिल": 10101,
  " प्रवीण": 10102,
  " रामायण": 10103,
  "०७": 10104,
  "ौड़": 10105,
  " जगा": 10106,
  "हार्": 10107,
  " द्वि": 10108,
  " वर्जन": 10109,
  " स्वदेश": 10110,
  " सूबे": 10111,
  " फ्ले": 10112,
  " समर्थित": 10113,
  " २००५": 10114,
  "ंजलि": 10115,
  " सॉस": 10116,
  " मूव": 10117,
  " महादेव": 10118,
  " एक्सपर्ट": 10119,
  " सड़कों": 10120,
  " निजात": 10121,
  " आतंकी": 10122,
  "सफाई": 10123,
  " गोस्वामी": 10124,
  " अश्विन": 10125,
  " जबलपुर": 10126,
  " अफगानिस्तान": 10127,
  " जमानत": 10128,
  "ौरा": 10129,
  " सुब": 10130,
  " बागी": 10131,
  " रुके": 10132,
  "वारे": 10133,
  " पीवी": 10134,
  " स्टडी": 10135,
  " सीएस": 10136,
  "यर्स": 10137,
  " मदन": 10138,
  " आईपी": 10139,
  " बदमा": 10140,
  " दाग": 10141,
  "टॉप": 10142,
  "नीचर": 10143,
  " निभाया": 10144,
  "बन्ध": 10145,
  " मोटर्स": 10146,
  " कोचिंग": 10147,
  " भंडार": 10148,
  " शासित": 10149,
  " बुलबु": 10150,
  " सिलसिले": 10151,
  " वसंत": 10152,
  " तेंदुलकर": 10153,
  "ईई": 10154,
  "यरी": 10155,
  "ाराम": 10156,
  "थियों": 10157,
  "ांव": 10158,
  "मिंग": 10159,
  " सूट": 10160,
  " पहुंचते": 10161,
  " महंगे": 10162,
  " दलाल": 10163,
  "गोपाल": 10164,
  " नकल": 10165,
  " त्रिव": 10166,
  " संरक्षित": 10167,
  " घटाने": 10168,
  " खुलने": 10169,
  " आरम्भ": 10170,
  " ऊँचा": 10171,
  " टोकरी": 10172,
  " मनरेगा": 10173,
  " ऑफिशियल": 10174,
  " गृहम": 10175,
  " महानिदेशक": 10176,
  " बाथरूम": 10177,
  "इन्": 10178,
  "दनी": 10179,
  " लेगा": 10180,
  "रोट": 10181,
  " साड़ी": 10182,
  " मतों": 10183,
  " आमजन": 10184,
  " सितारे": 10185,
  "अन्य": 10186,
  " नारेबाजी": 10187,
  "ॉरिटी": 10188,
  " दूरसंचार": 10189,
  " मूंगफली": 10190,
  " बराबरी": 10191,
  "नें": 10192,
  "्यव": 10193,
  " केले": 10194,
  " उपे": 10195,
  "बड़ी": 10196,
  " अनंत": 10197,
  "लोनी": 10198,
  " समझता": 10199,
  " महावीर": 10200,
  " चलेगी": 10201,
  " जायजा": 10202,
  " राशिफल": 10203,
  "डरूम": 10204,
  " चित्रों": 10205,
  " हटाया": 10206,
  " आवासीय": 10207,
  "वियस": 10208,
  " आचरण": 10209,
  " क्रिप्ट": 10210,
  " सिक्योरिटी": 10211,
  " स्वप्न": 10212,
  " मलाइका": 10213,
  " अंसारी": 10214,
  " मजदूरी": 10215,
  " बम": 10216,
  " वु": 10217,
  " डिश": 10218,
  " अनशन": 10219,
  "प्रद": 10220,
  " ऐक्ट": 10221,
  "मेक": 10222,
  " मेयर": 10223,
  " ६००": 10224,
  " शाही": 10225,
  " पंजे": 10226,
  " जलन": 10227,
  " रिफ": 10228,
  " पायी": 10229,
  " आश्र": 10230,
  " पद्मा": 10231,
  " ३७०": 10232,
  " पकाने": 10233,
  " बेटियों": 10234,
  " नगरपालिका": 10235,
  " उपरांत": 10236,
  " परमात्मा": 10237,
  " बरामद": 10238,
  "ोई": 10239,
  "अभ": 10240,
  "आख": 10241,
  " 5": 10242,
  "ंड्र": 10243,
  "चिंग": 10244,
  "जोल": 10245,
  " गुट": 10246,
  " गुम": 10247,
  "ंसल": 10248,
  "बर्ट": 10249,
  " प्रदेशों": 10250,
  "कार्प": 10251,
  "बेर": 10252,
  "र्निंग": 10253,
  " टैक्सी": 10254,
  "राहुल": 10255,
  " भागवत": 10256,
  " अंडा": 10257,
  " म्स्म८": 10258,
  " पूनम": 10259,
  " मानवीय": 10260,
  " संक्रांति": 10261,
  " इंद्रधनुष": 10262,
  "५७": 10263,
  " फू": 10264,
  "ैनी": 10265,
  " उगा": 10266,
  " राध": 10267,
  " बसा": 10268,
  " बढ़िया": 10269,
  " नील": 10270,
  " एंब": 10271,
  " कपास": 10272,
  "प्तान": 10273,
  "क्षीय": 10274,
  "जिकल": 10275,
  " सोफे": 10276,
  "घात": 10277,
  " एसबीआई": 10278,
  " मानसिकता": 10279,
  " आक्रो": 10280,
  " प्रतिभाशाली": 10281,
  " विश्लेष": 10282,
  " पीरिय": 10283,
  " हेलियो": 10284,
  "द्दाख": 10285,
  " सीबीएसई": 10286,
  " ललित": 10287,
  " दुःख": 10288,
  " पारदर्शिता": 10289,
  "पॉ": 10290,
  "टीम": 10291,
  "रेपी": 10292,
  "ंकित": 10293,
  " देशी": 10294,
  " पहुँ": 10295,
  " सहन": 10296,
  " रोह": 10297,
  " यूथ": 10298,
  "यानक": 10299,
  " निकाले": 10300,
  " प्रतिबि": 10301,
  "ब्लू": 10302,
  " निभाते": 10303,
  " टूटने": 10304,
  "रेटिंग": 10305,
  " गौरी": 10306,
  " विभाजन": 10307,
  " आश्चर्यजनक": 10308,
  " तर्ज": 10309,
  "कांक्षी": 10310,
  " बर्फबारी": 10311,
  " ससुराल": 10312,
  "आन": 10313,
  " सान": 10314,
  "वात": 10315,
  "ामु": 10316,
  "निर": 10317,
  " चिर": 10318,
  "िश्व": 10319,
  " करिश": 10320,
  " ओवन": 10321,
  " खासी": 10322,
  " मानता": 10323,
  "न्नति": 10324,
  " रोना": 10325,
  " आसार": 10326,
  " ईस्ट": 10327,
  " १५०००": 10328,
  " पत्ती": 10329,
  " झंडा": 10330,
  " बताएंगे": 10331,
  " प्रतिबंधित": 10332,
  " स्कैन": 10333,
  " मुहिम": 10334,
  " गड़बड़ी": 10335,
  " अपार्टमेंट": 10336,
  " हैरानी": 10337,
  " टैबलेट": 10338,
  " उंगलियों": 10339,
  "लीटर": 10340,
  "लबी": 10341,
  "संत": 10342,
  " बढ़े": 10343,
  " फैट": 10344,
  " ७७": 10345,
  "भगवान": 10346,
  " ब्रिज": 10347,
  "ांतों": 10348,
  "एनएल": 10349,
  " बचाओ": 10350,
  " भूखा": 10351,
  " स्वर्ग": 10352,
  " कटोरे": 10353,
  " नमस्ते": 10354,
  " जॉर्ज": 10355,
  " बैलेंस": 10356,
  " नगरीय": 10357,
  " नाश्ता": 10358,
  " भयभीत": 10359,
  " लोकतांत्रिक": 10360,
  "नक": 10361,
  "छे": 10362,
  "थल": 10363,
  " आब": 10364,
  " खट": 10365,
  " नसी": 10366,
  " नमा": 10367,
  " पहनी": 10368,
  "ौदा": 10369,
  " खां": 10370,
  " संप्र": 10371,
  " उठने": 10372,
  "ंगलोर": 10373,
  "जिस्ट": 10374,
  " मीरा": 10375,
  " प्रक्रियाओं": 10376,
  " भावुक": 10377,
  " पाठकों": 10378,
  "्यूमर": 10379,
  " चढ़ने": 10380,
  "ोनेशिया": 10381,
  " खिंच": 10382,
  " सजावट": 10383,
  " घोटाला": 10384,
  " प्रतिबद्धता": 10385,
  " दांव": 10386,
  " कार्यान्वयन": 10387,
  "निर्भर": 10388,
  " निर्दलीय": 10389,
  " दुश्मन": 10390,
  " माइक्रोसॉफ्ट": 10391,
  " जगदीश": 10392,
  " बेडरूम": 10393,
  "धक": 10394,
  " थाई": 10395,
  " धर्": 10396,
  "ष्टमी": 10397,
  "चाने": 10398,
  " द्विप": 10399,
  " नाली": 10400,
  " रीड": 10401,
  " उपलब्धियों": 10402,
  " प्रभार": 10403,
  " फ्रै": 10404,
  " थोड़े": 10405,
  "वर्ग": 10406,
  " बहाने": 10407,
  " शोधकर्ताओं": 10408,
  " रॉकेट": 10409,
  " बाहों": 10410,
  " इटली": 10411,
  "र्वेदी": 10412,
  " पिछवाड़े": 10413,
  " सुषमा": 10414,
  " फर्नीचर": 10415,
  "ारस": 10416,
  "हनी": 10417,
  "पीए": 10418,
  " भजन": 10419,
  " नाई": 10420,
  " हिरा": 10421,
  "धारकों": 10422,
  "त्रिम": 10423,
  "धीर": 10424,
  " सुरेंद्र": 10425,
  " बन्द": 10426,
  " गायक": 10427,
  " गोचर": 10428,
  " थकान": 10429,
  "डीयू": 10430,
  " ट्रेनें": 10431,
  " अतुल": 10432,
  " लाठी": 10433,
  "होत्रा": 10434,
  " सिंघ": 10435,
  "पोषण": 10436,
  " फ्लैश": 10437,
  "णमूल": 10438,
  " लहसुन": 10439,
  " वाणिज्यिक": 10440,
  " प्रचलित": 10441,
  " मुहूर्त": 10442,
  " कनाडा": 10443,
  "अंदाज": 10444,
  " शरारती": 10445,
  "कप्तान": 10446,
  " रच": 10447,
  "फिया": 10448,
  " सीओ": 10449,
  " लगाता": 10450,
  " सहारे": 10451,
  " जिज्ञ": 10452,
  " ७३": 10453,
  " सुरंग": 10454,
  " वाणी": 10455,
  " शेख": 10456,
  "कर्मा": 10457,
  " न्यूज़": 10458,
  " अहि": 10459,
  "दक्षि": 10460,
  " शिवा": 10461,
  " नौसेना": 10462,
  " धरने": 10463,
  " पशुओं": 10464,
  " दाखिला": 10465,
  " सिक्के": 10466,
  " संपादक": 10467,
  " खुराक": 10468,
  "महाराष्ट्र": 10469,
  " डायबिटीज": 10470,
  " भयानक": 10471,
  "ोव": 10472,
  " गाल": 10473,
  " बसे": 10474,
  "मनी": 10475,
  " रहो": 10476,
  " मुँ": 10477,
  "ंडन": 10478,
  " माप": 10479,
  " बैच": 10480,
  " रुका": 10481,
  " ताला": 10482,
  "ड्रा": 10483,
  " विषा": 10484,
  " बाल्टी": 10485,
  " चालान": 10486,
  " संध्या": 10487,
  " ३००००": 10488,
  " निशुल्क": 10489,
  "वित्त": 10490,
  " इजरा": 10491,
  " गडकरी": 10492,
  " महासागर": 10493,
  "द्वीप": 10494,
  "उद": 10495,
  "र्ति": 10496,
  " राइ": 10497,
  " अनूप": 10498,
  " लाकर": 10499,
  " गिट": 10500,
  " केयर": 10501,
  "इसका": 10502,
  " ट्रोल": 10503,
  " स्प्रे": 10504,
  "राधिक": 10505,
  " चलाना": 10506,
  " इन्द्र": 10507,
  "ेलियन": 10508,
  " एग्री": 10509,
  " चाँ": 10510,
  " गंदा": 10511,
  " दुर्ग": 10512,
  " चाकू": 10513,
  " स्क्रीनिंग": 10514,
  " बजाज": 10515,
  " ट्रैक्टर": 10516,
  " परफॉ": 10517,
  " सच्चा": 10518,
  " छूने": 10519,
  " दलितों": 10520,
  " सीतारमण": 10521,
  "जील": 10522,
  " भागे": 10523,
  " चलें": 10524,
  " बजर": 10525,
  " सैन": 10526,
  "वंशी": 10527,
  "सुबह": 10528,
  " हरकत": 10529,
  "दरक": 10530,
  " घंटी": 10531,
  " मज़ेदार": 10532,
  " विलियम": 10533,
  " स्टैंडर्ड": 10534,
  " आवागमन": 10535,
  " शाहिद": 10536,
  " क्रमशः": 10537,
  "ड्रैगन": 10538,
  " विनाश": 10539,
  " किडनी": 10540,
  " हँसते": 10541,
  " समकक्ष": 10542,
  "ोत": 10543,
  "ढ़े": 10544,
  " कोठ": 10545,
  "सेवा": 10546,
  " स्ली": 10547,
  "्वती": 10548,
  "ंकि": 10549,
  "ांतर": 10550,
  " कन्न": 10551,
  " एकेड": 10552,
  " उपवास": 10553,
  " बसें": 10554,
  " उर्फ": 10555,
  " कारोबारियों": 10556,
  " बिगड़": 10557,
  " प्रातः": 10558,
  " निर्वाचित": 10559,
  "प्रत्य": 10560,
  " आरएसएस": 10561,
  " लाभार्थियों": 10562,
  " एसएमएस": 10563,
  " परिश्रम": 10564,
  " प्रैक्टिस": 10565,
  " सम्बन्धी": 10566,
  "रिपोर्ट": 10567,
  " चतुर्वेदी": 10568,
  "्फ": 10569,
  "ैस": 10570,
  "ँग": 10571,
  "४१": 10572,
  "सरा": 10573,
  "ाहे": 10574,
  " अमा": 10575,
  " साकार": 10576,
  " सरो": 10577,
  " दीं": 10578,
  " नवन": 10579,
  " ईंट": 10580,
  " कपल": 10581,
  "कारिता": 10582,
  " क्रोध": 10583,
  " करवाना": 10584,
  "द्वारा": 10585,
  " भावनात्मक": 10586,
  " युवती": 10587,
  " इंगित": 10588,
  " श्रीनगर": 10589,
  " स्टीव": 10590,
  " सच्चे": 10591,
  " अवलोक": 10592,
  " ढूंढना": 10593,
  " ठहराया": 10594,
  " लम्बे": 10595,
  " ओबीसी": 10596,
  " भूपेश": 10597,
  "सामान्य": 10598,
  "जगह": 10599,
  " क्रिस्टल": 10600,
  " निर्मला": 10601,
  " पिज्जा": 10602,
  " चिह्नित": 10603,
  " उर्दू": 10604,
  "टै": 10605,
  " नं": 10606,
  "किया": 10607,
  " लेगी": 10608,
  "हुवी": 10609,
  " जूस": 10610,
  " सभाग": 10611,
  " शशि": 10612,
  "आरएस": 10613,
  " मीणा": 10614,
  " ठंडी": 10615,
  "बूझ": 10616,
  "धुरी": 10617,
  " संरक्षक": 10618,
  " प्रतियोगी": 10619,
  " रिटायर": 10620,
  " वरना": 10621,
  " निकायों": 10622,
  " गंदे": 10623,
  " ऋषभ": 10624,
  " खुदाई": 10625,
  " ड्रैगन": 10626,
  "पश्चिम": 10627,
  "स्तरां": 10628,
  " गृहमंत्री": 10629,
  "आय": 10630,
  "०६": 10631,
  "ैत": 10632,
  " सना": 10633,
  "थित": 10634,
  "रेस्ट": 10635,
  "टरिंग": 10636,
  " संयोग": 10637,
  " एडी": 10638,
  "एमई": 10639,
  " ६२": 10640,
  " कैम्प": 10641,
  "शुदा": 10642,
  " तेलु": 10643,
  " ठंडे": 10644,
  " वायदा": 10645,
  " दुकानदारों": 10646,
  " धनुष": 10647,
  " किग्रा": 10648,
  " लम्बी": 10649,
  "व्यापी": 10650,
  " गवर्नमेंट": 10651,
  " अल्लाह": 10652,
  " रेसल्ट": 10653,
  " लाइब्रेरी": 10654,
  " द्विपक्षीय": 10655,
  "घन": 10656,
  " 8": 10657,
  " बया": 10658,
  "स्फ": 10659,
  "न्ता": 10660,
  " मुड़": 10661,
  "टीय": 10662,
  "वारा": 10663,
  " लावा": 10664,
  " दीन": 10665,
  "फोल": 10666,
  " स्वत": 10667,
  " ७४": 10668,
  " बचना": 10669,
  " एसटी": 10670,
  " आयाम": 10671,
  " डेन": 10672,
  "जवाब": 10673,
  " खरीदें": 10674,
  " स्पर्श": 10675,
  " जमाने": 10676,
  " लिफ्ट": 10677,
  "ान्यास": 10678,
  " ख़ु": 10679,
  " टेंडर": 10680,
  "एमएक्स": 10681,
  " बंदरगाह": 10682,
  " उदयपुर": 10683,
  " क्वार्टर": 10684,
  " दिलीप": 10685,
  " सिस": 10686,
  "गिर": 10687,
  "ष्टिक": 10688,
  "उच्च": 10689,
  "जीपुर": 10690,
  " अभय": 10691,
  "चीनी": 10692,
  " ८३": 10693,
  " लीट": 10694,
  "िजय": 10695,
  " गंवा": 10696,
  " उत्पादक": 10697,
  " युवकों": 10698,
  "जीविका": 10699,
  " 6४": 10700,
  "ब्बारे": 10701,
  " प्राइमरी": 10702,
  " भाइयों": 10703,
  " इमरान": 10704,
  " अध्यापकों": 10705,
  "ंगकांग": 10706,
  " विरूद्ध": 10707,
  " हिरासत": 10708,
  "वाट": 10709,
  " बाप": 10710,
  "ल्ली": 10711,
  "गिंग": 10712,
  " बडी": 10713,
  " सचे": 10714,
  " लॉस": 10715,
  " कोषा": 10716,
  " गिना": 10717,
  " सीमाओं": 10718,
  " समुचित": 10719,
  " भगवान्": 10720,
  " संभावनाओं": 10721,
  " गोविंद": 10722,
  " सतीश": 10723,
  " स्ट्रिंग": 10724,
  " असमर्थ": 10725,
  " परिभाषा": 10726,
  " खजाने": 10727,
  " सत्तार": 10728,
  " रेंग": 10729,
  " इलेवन": 10730,
  " कुशवाहा": 10731,
  " मौलाना": 10732,
  " जुलूस": 10733,
  "उम्मीदवार": 10734,
  " फेस्टिवल": 10735,
  " लड़कियाँ": 10736,
  " अविश्व": 10737,
  " मल्होत्रा": 10738,
  " अविश्वसनीय": 10739,
  "इला": 10740,
  " राघ": 10741,
  " चाहने": 10742,
  " लगाये": 10743,
  "मेंद्र": 10744,
  "ॉक्स": 10745,
  "श्ती": 10746,
  " दवाई": 10747,
  " मूल्यवान": 10748,
  " २००३": 10749,
  " दांत": 10750,
  " निकलते": 10751,
  " जिंदा": 10752,
  " निकालकर": 10753,
  " लड़ाई": 10754,
  "फ्फर": 10755,
  " पॉली": 10756,
  " हलचल": 10757,
  " उपग्रह": 10758,
  " कॉन्ट": 10759,
  " उबाल": 10760,
  " ऑक्टा": 10761,
  " गार्डन": 10762,
  " धोखाध": 10763,
  " केशव": 10764,
  " टेनिस": 10765,
  " अब्दुल": 10766,
  " रिलेशनशिप": 10767,
  " ऑक्सीजन": 10768,
  " सुपरहिट": 10769,
  " मतलबी": 10770,
  "ग्विजय": 10771,
  "ईस": 10772,
  "माता": 10773,
  " प्रथा": 10774,
  " पीटर": 10775,
  "र्मल": 10776,
  "ंसू": 10777,
  " नीली": 10778,
  " आज्ञ": 10779,
  " उठाई": 10780,
  "सतन": 10781,
  "्लाई": 10782,
  "आवेदन": 10783,
  " दिखी": 10784,
  " शिवपाल": 10785,
  " मैग्": 10786,
  "ोसिस": 10787,
  " कॉलर": 10788,
  " साधु": 10789,
  " संबद्ध": 10790,
  " मानवता": 10791,
  " पोखर": 10792,
  " सम्बोधित": 10793,
  "डिय़": 10794,
  " अय्य": 10795,
  " इस्तीफे": 10796,
  " स्टूडियो": 10797,
  " स्रोतों": 10798,
  "रोधक": 10799,
  "शिक्षा": 10800,
  " सिंगर": 10801,
  " फोरम": 10802,
  " दिनचर्या": 10803,
  " स्न": 10804,
  " बाब": 10805,
  " सुक": 10806,
  " पिला": 10807,
  " पारा": 10808,
  "मकिन": 10809,
  "लेटर": 10810,
  " एपी": 10811,
  " सीपी": 10812,
  "जेट": 10813,
  " सरकारें": 10814,
  " उठे": 10815,
  " सिंगा": 10816,
  " खुशहाल": 10817,
  " वॉट": 10818,
  " पटरी": 10819,
  " पकड़ना": 10820,
  " महंगी": 10821,
  " आयुष": 10822,
  "ौनपुर": 10823,
  "कॉमर्स": 10824,
  "साइटी": 10825,
  " साबुन": 10826,
  " कहानियाँ": 10827,
  " बुलंद": 10828,
  " अब्दु": 10829,
  " नाश्ते": 10830,
  " उद्धव": 10831,
  " भरोसेमंद": 10832,
  " ओबामा": 10833,
  " अवलोकन": 10834,
  " तौ": 10835,
  "नरी": 10836,
  "इंद": 10837,
  " थीम": 10838,
  " रोट": 10839,
  "ंधों": 10840,
  "ुलन": 10841,
  "बिट": 10842,
  "भक्ति": 10843,
  "पुरम": 10844,
  "सरकारी": 10845,
  "क़्त": 10846,
  "हतक": 10847,
  " परिजन": 10848,
  " गाते": 10849,
  " जातियों": 10850,
  " सुमन": 10851,
  "गृह": 10852,
  " भ्रष्ट": 10853,
  " सुप्री": 10854,
  " उल्ट": 10855,
  " मीठे": 10856,
  " कब्जे": 10857,
  " १०८०": 10858,
  " हुड्डा": 10859,
  " स्नैक्स": 10860,
  " नीलामी": 10861,
  " भास्कर": 10862,
  " एम्मा": 10863,
  " बृज": 10864,
  " शिलान्यास": 10865,
  " गुब्बारे": 10866,
  "ताई": 10867,
  "लेन": 10868,
  " उमा": 10869,
  " मैट": 10870,
  " ऑर्": 10871,
  "क्षकों": 10872,
  "जनल": 10873,
  " टिका": 10874,
  " इसपर": 10875,
  " एसएस": 10876,
  " चाचा": 10877,
  " दरबार": 10878,
  " दिव्य": 10879,
  " सुगम": 10880,
  " फेफ": 10881,
  "स्केट": 10882,
  " शिकायतें": 10883,
  " जल्दबाजी": 10884,
  " ख़बर": 10885,
  " बढ़ावा": 10886,
  " फैलने": 10887,
  " विवेकान": 10888,
  " बढ़ेगी": 10889,
  " ओमप्रकाश": 10890,
  " बैडम": 10891,
  " यूएसबी": 10892,
  " मिस्टर": 10893,
  " खुराना": 10894,
  " विकलांग": 10895,
  "लोगों": 10896,
  " विकेटकीपर": 10897,
  " कॉरप": 10898,
  " आक्रामक": 10899,
  " बर्दाश्त": 10900,
  " नजरअंदाज": 10901,
  "प्रत्येक": 10902,
  " रेस्तरां": 10903,
  "७७": 10904,
  "पों": 10905,
  "गान": 10906,
  "वार्": 10907,
  " टोल": 10908,
  " स्टै": 10909,
  " छोड": 10910,
  "प्रेशन": 10911,
  " बादलों": 10912,
  " हेयर": 10913,
  " रॉक": 10914,
  "ल्हे": 10915,
  "िशंकर": 10916,
  " हिंदु": 10917,
  " झांक": 10918,
  " उतारने": 10919,
  "इंडिया": 10920,
  " वसूल": 10921,
  " श्रेणियों": 10922,
  " अमरीका": 10923,
  " एकादशी": 10924,
  " त्रिपुरा": 10925,
  "ोम": 10926,
  "दिल": 10927,
  "राने": 10928,
  " हीरा": 10929,
  " मुर्": 10930,
  " छान": 10931,
  "बाजार": 10932,
  " अपनाया": 10933,
  " १०८": 10934,
  " डॉक्ट": 10935,
  " विराज": 10936,
  " अग्रिम": 10937,
  " प्रांत": 10938,
  "ल्तान": 10939,
  " निहित": 10940,
  " वीजा": 10941,
  " लोहे": 10942,
  "चलन": 10943,
  " पड़ेगी": 10944,
  " धर्मशाला": 10945,
  " फोटोज": 10946,
  " एंड्रॉइड": 10947,
  " अंकुश": 10948,
  "चिकित": 10949,
  " छात्रवृत्ति": 10950,
  "टॉमी": 10951,
  " निस्तारण": 10952,
  " सिग्नल": 10953,
  " काय": 10954,
  "शाम": 10955,
  "रेस": 10956,
  " महार": 10957,
  "अच्छ": 10958,
  "्यून": 10959,
  " विशेषकर": 10960,
  " लियो": 10961,
  " फ़िल": 10962,
  " बोरी": 10963,
  " परीक्षाएं": 10964,
  " बजकर": 10965,
  " निर्णायक": 10966,
  "बताया": 10967,
  "बुध": 10968,
  " निवासियों": 10969,
  " चमत्कार": 10970,
  " पॉपुलर": 10971,
  " डिनर": 10972,
  "कोत्तर": 10973,
  "बच्चों": 10974,
  " उपभोग": 10975,
  " प्रतिद्वंद": 10976,
  " कोलेस्ट्रॉल": 10977,
  " बदमाश": 10978,
  " आज्ञा": 10979,
  " सोसाइटी": 10980,
  "०८": 10981,
  "'।": 10982,
  " पते": 10983,
  " सवा": 10984,
  " रहित": 10985,
  " छठ": 10986,
  "खेल": 10987,
  "ाहिर": 10988,
  "कोष": 10989,
  " मच्छ": 10990,
  "ंधरा": 10991,
  "योग्य": 10992,
  " दुआ": 10993,
  "जेडी": 10994,
  " जुटी": 10995,
  " टायर": 10996,
  " कृति": 10997,
  " एण्ड": 10998,
  "िवुड": 10999,
  " बढ़ाना": 11000,
  " ऋतु": 11001,
  "ूंगी": 11002,
  " मैनु": 11003,
  " साइज": 11004,
  " वेतनमान": 11005,
  "महल": 11006,
  "किस्तान": 11007,
  " छठे": 11008,
  " शोषण": 11009,
  " मचाया": 11010,
  " इंटेल": 11011,
  " उन्नति": 11012,
  " नर्सिंग": 11013,
  " चंचल": 11014,
  " रोडवेज": 11015,
  " अनुपालन": 11016,
  " मिथुन": 11017,
  " आराधना": 11018,
  " उर्वरक": 11019,
  " जातकों": 11020,
  " आइडिया": 11021,
  " अपग्रेड": 11022,
  " कनेक्टिविटी": 11023,
  " मोटरसाइकिल": 11024,
  " औसतन": 11025,
  " अउ": 11026,
  "वला": 11027,
  " बनाम": 11028,
  "जाज": 11029,
  " ओन": 11030,
  " वाद": 11031,
  "डिज": 11032,
  "ेंसिंग": 11033,
  " दिलों": 11034,
  " वन्य": 11035,
  "बॉब": 11036,
  " ओपनिंग": 11037,
  " दर्पण": 11038,
  "मौसम": 11039,
  " तरक्की": 11040,
  " ग्रोथ": 11041,
  " रेस्टोर": 11042,
  "ऊं": 11043,
  " फार": 11044,
  "वटी": 11045,
  "समी": 11046,
  "पाठ": 11047,
  " कैट": 11048,
  " कच्च": 11049,
  " गंत": 11050,
  " जिनको": 11051,
  "शूट": 11052,
  " डेम": 11053,
  "चन्द्र": 11054,
  " खरीदे": 11055,
  "वर्ण": 11056,
  " स्ट्रीम": 11057,
  " मशीनरी": 11058,
  " तोमर": 11059,
  " मंशा": 11060,
  " टूटे": 11061,
  " निगाह": 11062,
  " सौरभ": 11063,
  " प्रशंसकों": 11064,
  " मानदंड": 11065,
  " लद्दाख": 11066,
  " तृणमूल": 11067,
  " दिग्विजय": 11068,
  "९७": 11069,
  "लें": 11070,
  " होल": 11071,
  " मुज": 11072,
  " कंड": 11073,
  " अनवर": 11074,
  " नाश": 11075,
  " बाइन": 11076,
  " सुनता": 11077,
  " सूखी": 11078,
  " अमेजन": 11079,
  "उन्हें": 11080,
  " कॉमन": 11081,
  " मुकाम": 11082,
  " मिश्रित": 11083,
  " वास्तविकता": 11084,
  " मिसाल": 11085,
  " चिंतन": 11086,
  " कराये": 11087,
  " त्रुटि": 11088,
  " प्रोफेशनल": 11089,
  "कॉप्टर": 11090,
  " सुप्रीमो": 11091,
  "९८": 11092,
  " सकल": 11093,
  "ाहियों": 11094,
  " अधू": 11095,
  " सिग": 11096,
  "पाही": 11097,
  "रूम": 11098,
  " ७१": 11099,
  "जबकि": 11100,
  " सीमेंट": 11101,
  " पूछते": 11102,
  "वहन": 11103,
  "शुक्र": 11104,
  " माननीय": 11105,
  " संभावनाएं": 11106,
  " बेसब": 11107,
  " बूंद": 11108,
  " संकेतों": 11109,
  " महाभारत": 11110,
  "आयु": 11111,
  " क्लासिक": 11112,
  " काबिल": 11113,
  " पिकनिक": 11114,
  " मॉनि": 11115,
  " अकबर": 11116,
  " पैकेजिंग": 11117,
  " मेनू": 11118,
  "समाज": 11119,
  " ब्रोकर": 11120,
  " निष्ठा": 11121,
  " देखरेख": 11122,
  "णवीस": 11123,
  " थिएटर": 11124,
  " सभागार": 11125,
  "फन": 11126,
  " नट": 11127,
  " थै": 11128,
  " लिय": 11129,
  " विंग": 11130,
  "लीट": 11131,
  "ाहट": 11132,
  " सुध": 11133,
  " पहुंचना": 11134,
  " हाफ": 11135,
  " विज्ञ": 11136,
  "राइट": 11137,
  " लोकल": 11138,
  "निष्ठ": 11139,
  "हाउस": 11140,
  " बकरी": 11141,
  "राइड": 11142,
  " आदेशों": 11143,
  " अबतक": 11144,
  " जनहित": 11145,
  "दर्द": 11146,
  " उतने": 11147,
  " कलेक्ट": 11148,
  " मूत्र": 11149,
  " पंजीयन": 11150,
  " रियामे": 11151,
  " वरदान": 11152,
  " प्रतिपक्ष": 11153,
  " ठेके": 11154,
  " सेवक": 11155,
  " तलवार": 11156,
  " स्पिनर": 11157,
  " मंथन": 11158,
  " इनपुट": 11159,
  " डिफेंस": 11160,
  " नियामक": 11161,
  " मण्डल": 11162,
  " गड्ढ": 11163,
  " व्हाट्सएप": 11164,
  " इक्विटी": 11165,
  " बैक्टी": 11166,
  "पंजाब": 11167,
  "पार्टी": 11168,
  "कार्पण": 11169,
  "**": 11170,
  " प्या": 11171,
  " उपास": 11172,
  "वीन": 11173,
  " देखिए": 11174,
  " चबा": 11175,
  "हरि": 11176,
  "वर्स": 11177,
  " मानो": 11178,
  "िमय": 11179,
  "र्षि": 11180,
  " विगत": 11181,
  " परिष": 11182,
  " नियोजन": 11183,
  " डालना": 11184,
  " पारियों": 11185,
  " २५६": 11186,
  " संयम": 11187,
  " गुरुग्राम": 11188,
  " ....": 11189,
  "२०१७": 11190,
  " नकद": 11191,
  " अस्वी": 11192,
  " सियासत": 11193,
  " लीडर": 11194,
  " गवर्नर": 11195,
  " गोजी": 11196,
  " सिलाई": 11197,
  " कस्बे": 11198,
  " बृहस्पतिवार": 11199,
  " कोयला": 11200,
  " ग्रेजुएट": 11201,
  "ान्वित": 11202,
  " निवारण": 11203,
  " आमदनी": 11204,
  " आत्मनिर्भर": 11205,
  " अदरक": 11206,
  " पोर्टफोल": 11207,
  " बैडमिंटन": 11208,
  "०४": 11209,
  " जया": 11210,
  " दाह": 11211,
  "सोन": 11212,
  "दानी": 11213,
  "हरण": 11214,
  " वर्ड": 11215,
  " दुप": 11216,
  " ७६": 11217,
  " बूट": 11218,
  " सुमित": 11219,
  " यूज": 11220,
  " पड़ोस": 11221,
  " चाबी": 11222,
  " रामनाथ": 11223,
  " समितियों": 11224,
  "बिग": 11225,
  "सोम": 11226,
  " जायें": 11227,
  " भूखे": 11228,
  " रामदेव": 11229,
  " दसवीं": 11230,
  " पढ़ने": 11231,
  " अक्षर": 11232,
  " मसाला": 11233,
  " सिद्दी": 11234,
  " उपमुख्यमंत्री": 11235,
  " छोड़कर": 11236,
  " छूना": 11237,
  " स्क्रिप्ट": 11238,
  " अरोड़ा": 11239,
  " फतेह": 11240,
  " आक्रमण": 11241,
  " प्रसंस्करण": 11242,
  " पार्वती": 11243,
  "सह": 11244,
  "ल्द": 11245,
  " उपर": 11246,
  " लात": 11247,
  "जवान": 11248,
  " संगत": 11249,
  " ९५": 11250,
  " रामपुर": 11251,
  "रिफ": 11252,
  "डीएफ": 11253,
  "्ठी": 11254,
  "ध्यापक": 11255,
  " भोले": 11256,
  " अटैक": 11257,
  "इंडियन": 11258,
  " चेतना": 11259,
  " कौशिक": 11260,
  " घटाकर": 11261,
  " अनदेखी": 11262,
  " हाजिर": 11263,
  " बुलबुले": 11264,
  "प्रेवियस": 11265,
  " बाइनरी": 11266,
  "४६": 11267,
  " म्र": 11268,
  " यी": 11269,
  "योगी": 11270,
  " मौनी": 11271,
  "ख्त": 11272,
  " तेज़": 11273,
  " तेरे": 11274,
  " कयास": 11275,
  " क्वार": 11276,
  " टेम्प": 11277,
  " एजें": 11278,
  " अनुभवों": 11279,
  "अंतर": 11280,
  " संवेद": 11281,
  " टूटी": 11282,
  " आभूषण": 11283,
  " आइसो": 11284,
  " एनसीपी": 11285,
  " विद्वान": 11286,
  " निदेशालय": 11287,
  " सुचारू": 11288,
  " यद्यपि": 11289,
  "९५": 11290,
  "89": 11291,
  " कद": 11292,
  " किश": 11293,
  "जाल": 11294,
  "ड़िया": 11295,
  "फिन": 11296,
  "३००": 11297,
  "ढ़ियों": 11298,
  " एबी": 11299,
  "ओवर": 11300,
  " पिंक": 11301,
  "र्निया": 11302,
  "शाही": 11303,
  " एमसी": 11304,
  " ०२": 11305,
  " ०५": 11306,
  " निंदा": 11307,
  " चूह": 11308,
  " जोड़ों": 11309,
  " घातक": 11310,
  " घूमते": 11311,
  " बुराई": 11312,
  " ऊंचे": 11313,
  " रणनीतिक": 11314,
  " प्रसव": 11315,
  " टेलीकॉम": 11316,
  " जीपीएस": 11317,
  " इस्ला": 11318,
  "रादित्य": 11319,
  " चर्चित": 11320,
  "ेंशियल": 11321,
  " आपराधिक": 11322,
  "एनयूएमएक्स": 11323,
  " सिंगापुर": 11324,
  " वक़्त": 11325,
  " रेस्टोरेंट": 11326,
  " लोकार्पण": 11327,
  " लंच": 11328,
  " लगाती": 11329,
  "वांस": 11330,
  "रीज़": 11331,
  " ऑब्": 11332,
  " ट्राई": 11333,
  " खासा": 11334,
  " धीर": 11335,
  " राइड": 11336,
  " पैकेट": 11337,
  " पाएगी": 11338,
  " धीमा": 11339,
  " तत्वा": 11340,
  " दवाएं": 11341,
  " उलट": 11342,
  " चमकी": 11343,
  " कालीन": 11344,
  "पैड": 11345,
  " गुरूवार": 11346,
  " चिन्हित": 11347,
  " लेटेस्ट": 11348,
  " झूलों": 11349,
  " आजीविका": 11350,
  "ैश": 11351,
  " बाहु": 11352,
  " सिंग": 11353,
  " कैंड": 11354,
  " खादी": 11355,
  " उपक्रम": 11356,
  "निकेशन": 11357,
  " ढी": 11358,
  " धुआ": 11359,
  " देवताओं": 11360,
  " समीकरण": 11361,
  " स्टेप": 11362,
  " भौंक": 11363,
  " तथ्यों": 11364,
  " नवाचार": 11365,
  "टाइम": 11366,
  " अर्थशास्त्र": 11367,
  "ंगुली": 11368,
  " अनलॉक": 11369,
  " क्योकि": 11370,
  " इंडोनेशिया": 11371,
  " कृत्रिम": 11372,
  " माधुरी": 11373,
  "नीति": 11374,
  "्की": 11375,
  " तोह": 11376,
  "ष्यों": 11377,
  " नाट": 11378,
  " नीम": 11379,
  "परिवार": 11380,
  " दिखाकर": 11381,
  " मिलाएं": 11382,
  " जेपी": 11383,
  " ब्राउन": 11384,
  " निकलता": 11385,
  " अलमारी": 11386,
  " डरते": 11387,
  " हाईवे": 11388,
  "प्ताहिक": 11389,
  " 2५": 11390,
  " पहनकर": 11391,
  " श्वे": 11392,
  " इनाम": 11393,
  " बीएसई": 11394,
  " पतली": 11395,
  " बढ़ेगा": 11396,
  "मौली": 11397,
  " स्टाइलिश": 11398,
  " छिपाने": 11399,
  " फेमस": 11400,
  " मुरली": 11401,
  " पहेली": 11402,
  " लुढ़क": 11403,
  " करिश्मा": 11404,
  " हांगकांग": 11405,
  " पोर्टफोलियो": 11406,
  " पग": 11407,
  "राट": 11408,
  "िक्ट": 11409,
  " ओपी": 11410,
  "िंस": 11411,
  " पिघ": 11412,
  " सावन": 11413,
  " बनें": 11414,
  "खियां": 11415,
  " शिक्षाम": 11416,
  " ८२": 11417,
  " ज़ूम": 11418,
  "न्दु": 11419,
  "पतियों": 11420,
  "यंकर": 11421,
  " उड़ने": 11422,
  " अवसाद": 11423,
  "प्रियंका": 11424,
  " आइये": 11425,
  "घ्न": 11426,
  " रखेगा": 11427,
  " सभ्यता": 11428,
  " चौराहे": 11429,
  " वोल्ट": 11430,
  " बैंगलोर": 11431,
  "सनी": 11432,
  " सुस्त": 11433,
  "स्क्र": 11434,
  " लेजर": 11435,
  " विहार": 11436,
  " पिछड़े": 11437,
  " नौका": 11438,
  " एमएल": 11439,
  " एनजी": 11440,
  "स्क्रीन": 11441,
  " लेखकों": 11442,
  " जोड़कर": 11443,
  " पायदान": 11444,
  " सोनम": 11445,
  " चिड़िया": 11446,
  "उत्तरा": 11447,
  " अभिनव": 11448,
  " शिवलिंग": 11449,
  "----": 11450,
  " अस्थिर": 11451,
  " जंक्शन": 11452,
  " नवरात्रि": 11453,
  " आंगनबा": 11454,
  " एप्पल": 11455,
  "र्मेंस": 11456,
  " हाईस्कूल": 11457,
  " सगाई": 11458,
  " कांस्टेबल": 11459,
  " पूर्वोत्तर": 11460,
  " अथॉरिटी": 11461,
  " विश्वकर्मा": 11462,
  "इया": 11463,
  " उग": 11464,
  " पहिया": 11465,
  " दस्त": 11466,
  "पांच": 11467,
  "मोट": 11468,
  "सर्व": 11469,
  " पीएस": 11470,
  " माँग": 11471,
  " उठकर": 11472,
  " उग्र": 11473,
  "एचओ": 11474,
  " २००१": 11475,
  " कांटे": 11476,
  " अंगों": 11477,
  " जितेंद्र": 11478,
  " हफ्त": 11479,
  " जीवंत": 11480,
  " जीवों": 11481,
  "ब्बारा": 11482,
  " संन्यास": 11483,
  "िनेशन": 11484,
  " जर्मन": 11485,
  "पंथी": 11486,
  " शेड्यूल": 11487,
  " ब्राउज़र": 11488,
  " अख्तर": 11489,
  " दुबई": 11490,
  " हड्डियों": 11491,
  " सर्विसेज": 11492,
  " स्नैपड्रैगन": 11493,
  " स्नातकोत्तर": 11494,
  " वसुंधरा": 11495,
  " विनिमय": 11496,
  " गज": 11497,
  "यिक": 11498,
  "वही": 11499,
  " रित": 11500,
  "ड़ू": 11501,
  "फरी": 11502,
  "ामी": 11503,
  " वाक": 11504,
  "भवन": 11505,
  "ब्रा": 11506,
  " जुन": 11507,
  " समझे": 11508,
  "ंबे": 11509,
  " ८४": 11510,
  " ऊब": 11511,
  " स्पर्": 11512,
  " पूछती": 11513,
  "हमारी": 11514,
  " वॉक": 11515,
  " २००२": 11516,
  "प्रीम": 11517,
  " जताते": 11518,
  "आईपीएल": 11519,
  " कीमती": 11520,
  "जम्मू": 11521,
  " डाकघर": 11522,
  " प्रतिस्पर्धी": 11523,
  " समायोजित": 11524,
  " महत्त्वपूर्ण": 11525,
  "लगभग": 11526,
  " बहिष्कार": 11527,
  " छेड़छाड़": 11528,
  "राउंडर": 11529,
  "आखिर": 11530,
  " वाड्रा": 11531,
  " सिपाही": 11532,
  "जल्द": 11533,
  "रव": 11534,
  " अपरा": 11535,
  "दरी": 11536,
  "स्थी": 11537,
  " महंत": 11538,
  " अश्": 11539,
  " गूं": 11540,
  " कलम": 11541,
  "नीताल": 11542,
  "गूगल": 11543,
  " सतत": 11544,
  " करवाए": 11545,
  " ब्रॉड": 11546,
  " रिश्तेदार": 11547,
  " रहाणे": 11548,
  " तिलक": 11549,
  " नड्डा": 11550,
  " समन्वयक": 11551,
  "निर्माण": 11552,
  " चैनलों": 11553,
  "ारोपण": 11554,
  "पीड़न": 11555,
  "दक्षिण": 11556,
  " श्वेता": 11557,
  " भयंकर": 11558,
  "मश": 11559,
  "गौ": 11560,
  "80": 11561,
  "लास": 11562,
  " थका": 11563,
  "अक्ष": 11564,
  "गामी": 11565,
  " ओला": 11566,
  " क्रय": 11567,
  " सहभाग": 11568,
  "ंपर्क": 11569,
  " पूछना": 11570,
  " राष्ट्रवाद": 11571,
  " १८०": 11572,
  " घटनाएं": 11573,
  " चेंज": 11574,
  " आइक": 11575,
  " गतिविधियां": 11576,
  " संगठित": 11577,
  " कवाय": 11578,
  " क्षतिग्रस्त": 11579,
  " ढांचा": 11580,
  "क्योंकि": 11581,
  "िलिकॉन": 11582,
  " तादाद": 11583,
  " आडवाणी": 11584,
  " डेयरी": 11585,
  " पौष्टिक": 11586,
  "्ग": 11587,
  "धू": 11588,
  " अा": 11589,
  " किफ": 11590,
  "वाकर": 11591,
  "क्सा": 11592,
  "म्त": 11593,
  " हिद": 11594,
  " फैले": 11595,
  " पूर्वक": 11596,
  " नशा": 11597,
  " उच्चतर": 11598,
  " रेन": 11599,
  " स्पार्क": 11600,
  " पीयू": 11601,
  " परिवेश": 11602,
  " लेफ्ट": 11603,
  " पौधा": 11604,
  "राहट": 11605,
  " प्रज्ञा": 11606,
  " अपेक्षित": 11607,
  " आदिवासियों": 11608,
  " बिताने": 11609,
  " सराहनीय": 11610,
  " गोल्डन": 11611,
  " कांफ्रेंस": 11612,
  " जनगणना": 11613,
  " सोलर": 11614,
  "प्रयाग": 11615,
  " इंडियंस": 11616,
  " सापेक्ष": 11617,
  " सक्सेना": 11618,
  " गोंद": 11619,
  " मुआवजा": 11620,
  " मोमबत्ती": 11621,
  " छापेमारी": 11622,
  " हफ्तों": 11623,
  " औऱ": 11624,
  " सुहा": 11625,
  " कास्ट": 11626,
  "टरप": 11627,
  " नामित": 11628,
  " घोल": 11629,
  " पैड": 11630,
  "सीएस": 11631,
  "ान्त": 11632,
  " पेड़": 11633,
  " डेली": 11634,
  " ९८": 11635,
  " डा०": 11636,
  " फ्रिज": 11637,
  " ड्रम": 11638,
  " प्लेयर": 11639,
  " भूरे": 11640,
  "ोत्तरी": 11641,
  " रश्म": 11642,
  " संकल": 11643,
  " बोलना": 11644,
  " सिद्धू": 11645,
  " उद्देश्यों": 11646,
  "त्सप्प": 11647,
  " कूदना": 11648,
  " संबोधन": 11649,
  "प्टर": 11650,
  " इंडस्ट्रीज": 11651,
  " धारक": 11652,
  " बादशाह": 11653,
  " जानकारियां": 11654,
  " कागजात": 11655,
  " पुलिसकर्मी": 11656,
  " हिमालय": 11657,
  " पुजारा": 11658,
  " वैवाहिक": 11659,
  " रुझान": 11660,
  " बीकानेर": 11661,
  "डणवीस": 11662,
  " साप्ताहिक": 11663,
  " हिदायत": 11664,
  "७२": 11665,
  " समर": 11666,
  "तभी": 11667,
  " बाजी": 11668,
  " दिश": 11669,
  " वर्गी": 11670,
  "रिट": 11671,
  "पयोग": 11672,
  " गुड़": 11673,
  " इसरो": 11674,
  " विकार": 11675,
  " वर्षो": 11676,
  " मॉल": 11677,
  " विधा": 11678,
  " प्रहार": 11679,
  " भत्ता": 11680,
  " ब्रज": 11681,
  " यादगार": 11682,
  " झंडी": 11683,
  "ोपिक": 11684,
  " विवो": 11685,
  " बैरल": 11686,
  " घाटा": 11687,
  " 201": 11688,
  " बनवाने": 11689,
  " पट्टा": 11690,
  " व्यतीत": 11691,
  " औषधि": 11692,
  " तुर्की": 11693,
  " रगड़": 11694,
  "५२": 11695,
  " ग़": 11696,
  " नान": 11697,
  "्वत": 11698,
  " अखा": 11699,
  "भक्त": 11700,
  "ब्बा": 11701,
  "मुन": 11702,
  " अवध": 11703,
  " ठहर": 11704,
  " ६३": 11705,
  " दरार": 11706,
  " बढ़ते": 11707,
  "हाइड": 11708,
  "ंशु": 11709,
  "ट्टर": 11710,
[...]
